[UNK]
[CLS]
[SEP]
[PAD]
[MASK]
<unused0>
<unused1>
<unused2>
<unused3>
<unused4>
<unused5>
<unused6>
<unused7>
<unused8>
<unused9>
!
"
#
$
%
&
'
(
)
*
+
,
-
.
/
0
1
2
3
4
5
6
7
8
9
:
;
<
=
>
?
@
A
B
C
D
E
F
G
H
I
J
K
L
M
N
O
P
Q
R
S
T
U
V
W
X
Y
Z
[
]
^
_
a
b
c
d
e
f
g
h
i
j
k
l
m
n
o
p
q
r
s
t
u
v
w
x
y
z
{
|
}
~
°
±
Å
×
÷
́
̄
Γ
Δ
Θ
Λ
Π
Σ
Φ
Ψ
Ω
α
β
γ
δ
ε
ζ
η
θ
κ
λ
μ
ν
ξ
π
ρ
σ
τ
υ
φ
χ
ψ
ω
О
‐
―
‖
‘
’
“
”
′
※
←
↑
→
↓
⇒
⇔
∂
∇
∈
√
∝
∞
∠
∥
∧
∫
≒
≠
≡
≦
≧
≪
≫
⊥
─
│
■
□
▲
△
▼
◆
○
◎
●
☆
♯
、
。
〃
々
〇
〈
〉
《
》
「
」
『
』
【
】
〓
〔
〕
あ
い
う
え
お
か
が
き
ぎ
く
ぐ
け
げ
こ
ご
さ
ざ
し
じ
す
ず
せ
ぜ
そ
ぞ
た
だ
ち
ぢ
っ
つ
づ
て
で
と
ど
な
に
ぬ
ね
の
は
ば
ぱ
ひ
び
ぴ
ふ
ぶ
ぷ
へ
べ
ぺ
ほ
ぼ
ぽ
ま
み
む
め
も
ゃ
や
ゅ
ゆ
ょ
よ
ら
り
る
れ
ろ
わ
を
ん
゙
゚
ゝ
ゞ
ァ
ア
ィ
イ
ゥ
ウ
ェ
エ
ォ
オ
カ
ガ
キ
ギ
ク
グ
ケ
ゲ
コ
ゴ
サ
ザ
シ
ジ
ス
ズ
セ
ゼ
ソ
ゾ
タ
ダ
チ
ヂ
ッ
ツ
ヅ
テ
デ
ト
ド
ナ
ニ
ヌ
ネ
ノ
ハ
バ
パ
ヒ
ビ
ピ
フ
ブ
プ
ヘ
ベ
ペ
ホ
ボ
ポ
マ
ミ
ム
メ
モ
ャ
ヤ
ュ
ユ
ョ
ヨ
ラ
リ
ル
レ
ロ
ワ
ヲ
ン
ヴ
ヵ
ヶ
・
ー
一
丁
七
万
丈
三
上
下
不
与
且
世
丘
両
並
中
串
丸
丹
主
丼
乃
久
之
乍
乏
乖
乗
乙
九
乱
乳
乾
亀
了
予
争
事
二
云
互
五
井
亘
亙
些
亜
亡
亢
交
亦
享
京
人
什
仁
今
介
仏
仔
仕
他
付
仙
代
令
以
仮
仰
仲
件
任
企
伊
伏
伐
休
会
伝
伴
伸
伺
似
佃
但
位
低
住
佐
体
何
余
作
併
使
例
供
依
価
侯
侵
便
係
促
俊
俗
保
俟
信
修
俯
俳
俵
倉
個
倍
倒
倖
候
倚
借
倣
値
倦
偏
做
停
健
側
偵
偶
偽
傍
傘
備
催
債
傷
傾
僅
働
像
儀
億
儘
償
優
元
兄
充
兆
先
光
克
免
兎
児
入
全
八
公
六
共
兵
其
具
典
兼
内
円
冊
再
冒
冗
写
冠
冪
冬
冶
冷
凌
凍
凝
凡
処
凧
凭
凶
凸
凹
出
函
凾
刀
刃
分
切
刈
刊
列
初
判
別
利
到
刳
制
刷
券
刺
刻
剃
則
削
前
剖
剛
剣
剤
剥
剪
副
剰
割
創
劃
劇
劈
力
功
加
劣
助
努
励
労
効
勃
勉
動
勘
務
勝
募
勢
勤
勧
勾
勿
匂
包
匍
匐
化
北
匠
匡
匣
匹
区
医
匿
十
千
升
午
卉
半
卑
卒
卓
協
南
単
博
卜
占
印
危
即
却
卵
卷
卸
厄
厚
原
厨
厳
去
参
又
叉
及
友
双
反
収
取
受
叙
叢
口
古
句
叩
只
叫
召
可
台
史
右
叶
号
司
吃
各
合
吉
吊
同
名
吐
向
吟
否
含
吸
吹
吻
呂
呆
呈
呉
告
呑
周
味
呼
命
咀
咄
和
咥
咬
咲
咳
咽
品
員
哺
唆
唇
唐
唯
唱
唾
商
問
啓
善
喉
喋
喘
喚
喜
喩
喪
喫
喰
営
嗅
嗜
嘔
嘱
嘴
噌
噛
器
噴
嚇
嚢
嚥
嚼
四
回
因
団
困
囲
図
固
国
圃
圏
園
土
圧
在
地
坂
均
坏
坐
坑
坦
坩
坪
垂
型
垢
垣
埃
埋
城
域
執
培
基
堀
堂
堅
堆
堝
堤
堪
堰
報
場
塀
塁
塊
塑
塔
塗
塚
塞
塩
填
塵
塾
境
墓
増
墜
墨
壁
壇
壊
壌
壜
士
壮
声
売
壷
壺
変
夏
夕
外
多
夜
夢
大
天
太
夫
央
失
夾
奇
奈
奉
奏
契
套
奥
奧
奨
奪
奮
女
好
如
妄
妊
妙
妥
妨
妻
始
姓
委
姜
姿
威
娘
娠
娩
娯
婆
婚
婦
媒
嫌
子
孔
字
存
季
孤
学
孫
孵
宅
宇
守
安
完
宗
官
宙
定
宛
宜
宝
実
客
宣
室
宮
害
宴
家
容
宿
寂
寄
密
富
寒
寛
寝
察
寡
寧
審
寮
寸
寺
対
寿
封
専
射
将
尊
尋
導
小
少
尖
尚
尤
就
尺
尻
尽
尾
尿
局
居
屈
届
屋
屎
屏
屑
展
属
屠
屡
層
履
山
岐
岡
岩
岳
岸
峙
峰
島
峻
崎
崖
崗
崩
嵌
嵩
川
州
巡
巣
工
左
巧
巨
差
己
巴
巻
巾
市
布
帆
希
帖
帛
師
席
帯
帰
帳
常
帽
幅
幌
幕
幟
幣
干
平
年
幸
幹
幻
幼
幾
庁
広
庇
床
序
底
店
府
度
座
庫
庭
康
庸
廃
廉
廊
延
建
廻
弁
弊
式
弓
弔
引
弗
弛
弟
弦
弧
弯
弱
張
強
弾
彎
当
彙
形
彩
彫
影
役
彼
往
径
待
徊
律
後
徐
徒
従
得
徘
御
復
循
微
徳
徴
徹
心
必
忌
忍
志
忘
忙
応
忠
快
念
怒
怖
思
怠
急
性
怪
恐
恒
恣
恥
恩
息
恰
恵
悉
悟
患
悩
悪
悲
情
惑
惣
惧
惰
想
惹
愉
意
愛
感
態
慌
慎
慢
慣
慮
慴
慶
憂
憑
憩
憶
懐
懸
成
我
戒
或
戦
截
戯
戴
戸
戻
房
所
扁
扇
扉
手
才
打
払
扛
扞
扱
扶
扼
承
技
抄
抉
把
抑
投
抗
折
抜
択
披
抱
抵
抹
押
抽
担
拇
拌
拍
拒
拓
拗
拘
拙
招
拝
拠
拡
括
拭
拮
拳
拶
拾
持
指
按
挑
挙
挟
挨
挫
振
挽
挾
挿
捉
捌
捏
捕
捗
捜
捨
捩
据
捲
捺
捻
掃
授
掌
排
掘
掛
掠
採
探
接
控
推
掩
措
掬
掲
掴
掻
揃
揉
描
提
揚
換
握
揮
援
揺
損
搏
搖
搗
搬
搭
携
搾
摂
摘
摩
摸
摺
撃
撒
撓
撚
撤
撥
撫
播
撮
撲
撹
擁
擂
操
擦
擬
擲
擺
擾
攣
攪
支
改
攻
放
政
故
效
敏
救
敗
教
敢
散
敬
数
敲
整
敵
敷
斂
文
斉
斎
斑
斗
料
斜
斡
斥
斫
斬
断
斯
新
方
於
施
旅
旋
族
旗
既
日
旦
旧
旨
早
旬
旭
旺
昂
昆
昇
明
易
昔
星
映
春
昧
昨
昭
是
昼
時
晒
晩
普
景
晴
晶
智
暇
暈
暑
暖
暗
暦
暫
暮
暴
曇
曖
曜
曝
曲
曳
更
書
曹
替
最
月
有
服
朗
望
朝
期
木
未
末
本
札
朱
朶
机
朽
杆
杉
杏
材
村
杓
杖
杜
束
条
杢
来
杭
杯
東
杵
杼
松
板
析
枕
林
枚
果
枝
枠
枡
枢
枯
架
柄
柑
染
柔
柩
柱
柵
査
柾
柿
栄
栓
栗
栞
校
株
核
根
格
栽
桁
桂
桃
框
案
桐
桑
桜
桝
桟
桧
桶
桿
梁
梃
梅
梗
條
梢
梨
梯
械
梱
梳
棄
棋
棒
棘
棚
棟
棧
森
棲
棹
棺
椀
椅
植
椎
椒
検
椰
楊
楔
楕
業
極
楽
概
構
槌
槍
槓
様
槽
樋
標
樟
模
権
横
樹
樽
橇
橈
橋
橘
橙
機
檀
檜
檻
櫓
櫛
欄
欠
次
欧
欲
欺
款
歇
歌
歓
止
正
此
武
歩
歪
歯
歳
歴
死
殆
殊
残
殖
殴
段
殺
殻
殼
殿
毀
母
毎
毒
比
毛
毯
氏
民
気
水
氷
永
氾
汁
求
汎
汐
汗
汚
江
池
汰
汲
決
汽
沃
沈
沓
沖
没
沢
沫
河
沸
油
治
沼
沿
況
泄
泉
泊
泌
法
泡
波
泣
泥
注
泳
洋
洗
洞
津
洩
洪
活
派
流
浄
浅
浚
浜
浣
浪
浮
浴
海
浸
消
涙
涯
液
涼
淀
淘
淡
深
淵
混
添
清
渇
済
渉
渋
渓
減
渠
渡
渣
渦
温
渫
測
港
湖
湛
湧
湯
湾
湿
満
溌
源
準
溜
溝
溢
溯
溶
溺
滅
滋
滌
滑
滓
滝
滞
滲
滴
漁
漂
漆
漉
漏
漑
演
漕
漠
漢
漫
漬
漸
漿
潅
潔
潜
潟
潤
潮
潰
澄
澱
激
濁
濃
濘
濡
濫
濯
濾
瀘
瀝
瀬
灌
火
灯
灰
灸
灼
災
炉
炊
炎
炒
炬
炭
炸
点
為
烈
烏
焔
焙
焚
無
焦
然
焼
煉
煎
煙
煤
照
煩
煮
煽
熊
熔
熟
熨
熱
燃
燈
燐
燒
燥
燭
燵
燻
爆
爪
父
爽
爾
片
版
牌
牙
牛
牡
牢
牧
物
牲
特
牽
犠
犬
犯
状
狂
狙
独
狭
猛
猫
献
猶
獣
獲
玄
率
玉
王
玩
珀
珊
珍
珠
珪
班
現
球
理
琥
琴
琺
瑕
瑚
瑣
瑯
璧
環
瓜
瓢
瓦
瓶
甘
甚
甜
生
産
用
田
由
甲
申
男
町
画
界
畏
畑
畔
留
畜
畝
略
畦
番
異
畳
疇
疎
疏
疑
疫
疱
疲
疵
疹
疼
疾
病
症
痒
痔
痕
痘
痙
痛
痢
痩
痰
痴
痺
瘍
瘡
瘢
瘤
瘻
療
癌
癒
癖
癬
発
登
白
百
的
皆
皮
皺
皿
盆
益
盗
盛
盟
監
盤
盪
目
盲
直
相
盾
省
眉
看
県
真
眠
眩
眺
眼
着
睡
督
睫
瞥
瞬
瞭
瞰
瞳
瞼
矛
矢
知
矩
短
矮
矯
石
砂
砒
研
砕
砥
砲
破
硅
硝
硫
硬
硼
碁
碇
碍
碑
碗
確
磁
磨
磯
礁
礎
礫
礬
示
礼
社
祈
祉
祖
祝
神
票
祭
禁
福
禽
秀
私
秋
科
秒
秘
秤
秩
称
移
稀
稈
程
稍
税
稔
稚
稜
稟
稠
種
稲
稼
稿
穀
穂
積
穏
穫
穴
究
空
穿
突
窃
窄
窒
窓
窟
窩
窪
窮
窯
竄
立
竜
章
竣
童
竪
端
競
竹
竿
笑
笛
笠
笥
符
第
笹
筆
筈
等
筋
筍
筏
筐
筒
答
策
筬
筺
箇
箋
箒
箔
箕
算
管
箪
箱
箸
節
範
築
篏
篠
篤
篩
篭
簀
簡
簾
簿
籍
籠
籤
米
籾
粃
粉
粋
粒
粕
粗
粘
粛
粥
粧
精
糊
糖
糞
糟
糠
糧
糸
系
紀
約
紅
紋
納
紐
純
紗
紙
級
紛
素
紡
索
紫
紮
累
細
紹
紺
終
組
絆
経
結
絖
絞
絡
給
絨
統
絵
絶
絹
継
続
綛
綜
維
綱
網
綴
綺
綻
綾
綿
緊
総
緑
緒
緘
線
締
編
緩
緯
練
緻
縁
縄
縒
縛
縞
縣
縦
縫
縮
績
繁
繊
繋
繍
織
繕
繞
繭
繰
纏
缶
罐
罠
罪
罫
置
罰
署
罹
羅
羊
美
群
義
羽
翅
翌
習
翔
翻
翼
老
考
者
而
耐
耕
耗
耘
耳
聞
聴
職
肉
肋
肌
肖
肘
肛
肝
股
肢
肥
肩
肪
肯
育
肺
胃
胆
背
胎
胚
胛
胞
胡
胱
胴
胸
能
脂
脅
脆
脇
脈
脊
脚
脛
脱
脳
脹
脾
腋
腎
腐
腔
腕
腫
腰
腱
腸
腹
腺
腿
膀
膏
膚
膜
膝
膠
膣
膨
膳
膵
膿
臀
臍
臓
臥
臨
自
臭
至
致
臼
興
舌
舎
舒
舗
舞
舟
航
般
舵
舶
舷
船
艇
艙
艤
艦
良
色
艶
芋
芒
芝
芥
芯
花
芳
芸
芻
芽
苔
苗
苛
若
苦
英
苺
茂
茄
茎
茶
茸
茹
草
荒
荘
荷
莢
莫
菅
菊
菌
菓
菜
華
菱
萄
萎
落
葉
著
葛
葡
葬
葱
葺
蒔
蒙
蒟
蒲
蒸
蒻
蓄
蓋
蓚
蓮
蔓
蔗
蔵
蔽
蕎
蕾
薄
薦
薪
薫
薬
薯
藁
藍
藤
藷
藺
藻
蘇
虚
虞
虫
虹
蚊
蚕
蛇
蛋
蛍
蛸
蛹
蛾
蜂
蜜
蝋
蝕
蝶
融
螢
螺
蟹
蟻
蠕
蠣
血
衆
行
術
街
衛
衝
衡
衣
表
衰
衿
袋
袖
袢
被
袴
裁
裂
装
裏
裕
補
裝
裡
裸
製
裾
複
褐
褥
褪
褶
襖
襞
襟
襠
襦
襲
西
要
覆
見
規
視
覗
覚
覧
親
観
角
解
触
言
訂
計
討
訓
託
記
訪
設
許
訳
訴
診
証
詐
評
詞
試
詩
詮
詰
話
該
詳
誇
誌
認
誕
誘
語
誠
誤
説
読
誰
課
調
談
請
論
諦
諧
諸
諾
謂
謄
講
謝
識
譜
警
議
譲
護
谷
豆
豊
豚
象
豪
貌
貝
負
財
貢
貧
貨
販
貫
責
貯
貰
貴
買
貸
費
貼
貿
賀
賃
賄
資
賊
賛
賞
賠
賦
質
賭
購
贈
贋
赤
走
赴
起
超
越
趣
趨
足
趾
距
跡
跨
路
跳
践
踊
踏
踝
踵
蹄
蹴
躇
躊
躍
躓
身
躯
車
軋
軌
軍
軒
軟
転
軸
軽
較
載
輌
輛
輝
輪
輳
輸
輻
輾
轄
轍
轟
辛
辞
農
辷
辺
込
辿
迂
迄
迅
迎
近
返
迫
述
迷
追
退
送
逃
逆
透
逐
逓
途
這
通
速
造
逢
連
週
進
逸
逹
遂
遅
遇
遊
運
遍
過
道
達
違
遙
遜
遠
遡
遣
遥
適
遭
遮
遵
遷
選
遺
避
還
邦
邪
邸
郊
郎
郡
部
郭
郵
都
酌
配
酎
酒
酔
酢
酪
酬
酵
酷
酸
醒
醗
醤
醪
醸
釈
釉
里
重
野
量
金
釘
釜
針
釣
釦
鈍
鈎
鈑
鈴
鉄
鉋
鉗
鉛
鉢
鉤
鉱
鉾
銀
銃
銅
銑
銘
銜
銭
銹
鋏
鋤
鋭
鋲
鋳
鋸
鋼
錆
錐
錘
錠
錦
錨
錫
錬
錯
録
鍋
鍍
鍔
鍛
鍬
鍮
鍵
鍼
鎌
鎖
鎧
鎮
鏝
鏡
鐘
鑑
鑞
長
門
閂
閃
閉
開
閑
間
関
閣
閲
閾
闇
闘
阪
防
阻
附
降
限
院
陣
除
陥
陰
陳
陵
陶
陸
険
陽
隅
隆
隈
隊
階
随
隔
隘
隙
際
障
隠
隣
隧
雀
雄
雅
集
雇
雌
雑
雛
離
難
雨
雪
雫
雰
雲
零
雷
雹
電
需
震
霊
霜
霧
露
青
静
非
面
革
靭
靱
靴
鞄
鞍
鞘
鞭
韓
音
韻
響
頁
頂
頃
項
順
須
預
頑
頒
頓
頗
領
頚
頬
頭
頸
頻
頼
顆
題
額
顎
顔
顕
願
類
顧
風
飛
食
飢
飯
飲
飴
飼
飽
飾
餃
餅
養
餌
餓
餡
館
饅
首
香
馬
馳
馴
駄
駅
駆
駐
駒
駕
騎
騒
験
騰
騷
驚
骨
骸
髄
高
髪
髭
鬆
鬱
鬼
魂
魅
魔
魚
鮎
鮨
鮭
鮮
鯨
鰭
鰹
鰻
鱗
鳥
鳩
鳳
鳴
鴨
鶏
鹸
鹹
鹿
麗
麦
麩
麹
麺
麻
黄
黒
黙
黴
鼓
鼠
鼻
齟
齢
齧
齬
齲
龍
##3
##4
##5
##6
##0
##2
##1
##ク
##タ
##イ
##留
##め
##a
##t
##g
##c
##8
##7
##i
##s
##n
##e
##r
##u
##v
##N
##o
##y
##b
##M
##ジ
##ナ
##マ
##コ
##ン
##プ
##リ
##グ
##ネ
##ー
##テ
##ィ
##ッ
##ド
##ビ
##ト
##ダ
##ソ
##チ
##オ
##シ
##ア
##ベ
##ゼ
##ス
##ル
##ホ
##ニ
##ュ
##ム
##キ
##サ
##て
##ん
##9
##A
##C
##T
##デ
##フ
##ラ
##l
##k
##り
##つ
##け
##る
##ノ
##ロ
##レ
##ァ
##ョ
##ケ
##ヴ
##ゾ
##エ
##セ
##h
##ザ
##f
##S
##あ
##わ
##せ
##ブ
##パ
##愛
##ピ
##し
##x
##ゥ
##ガ
##ゲ
##の
##風
##れ
##上
##が
##V
##E
##m
##モ
##ウ
##き
##合
##っ
##ヨ
##ミ
##ハ
##d
##ャ
##ヤ
##ボ
##ポ
##H
##I
##Z
##X
##D
##メ
##カ
##殊
##番
##号
##P
##Y
##Q
##K
##G
##F
##L
##R
##W
##w
##バ
##p
##ワ
##い
##も
##ズ
##医
##裂
##ェ
##ゴ
##食
##線
##O
##z
##浴
##ヘ
##ツ
##形
##ペ
##ヒ
##ヌ
##海
##魚
##ォ
##糖
##ま
##付
##増
##工
##高
##図
##学
##や
##か
##税
##計
##算
##ど
##う
##機
##能
##障
##害
##沢
##足
##ら
##U
##物
##科
##丁
##B
##た
##落
##と
##ギ
##頭
##説
##手
##出
##す
##げ
##続
##布
##団
##裏
##ユ
##港
##井
##製
##作
##所
##外
##返
##取
##瓦
##慮
##体
##引
##入
##部
##座
##席
##導
##帯
##木
##時
##影
##地
##居
##後
##q
##州
##刀
##袖
##さ
##く
##粒
##ぼ
##み
##心
##干
##払
##額
##千
##家
##読
##辺
##応
##え
##演
##通
##度
##振
##館
##油
##薦
##者
##ヲ
##仕
##下
##甲
##孔
##痕
##間
##料
##金
##嵌
##友
##j
##写
##盛
##歩
##ε
##骨
##筋
##着
##宮
##頸
##績
##評
##価
##溜
##借
##理
##職
##列
##毛
##公
##べ
##絆
##直
##道
##開
##発
##な
##広
##袋
##行
##壁
##句
##背
##方
##法
##昔
##誤
##傘
##よ
##次
##三
##込
##端
##店
##見
##ぎ
##乱
##勤
##刻
##冶
##ほ
##費
##極
##幅
##聴
##分
##塑
##J
##差
##安
##感
##ち
##向
##久
##保
##性
##具
##田
##事
##ヂ
##琴
##ぞ
##光
##深
##儀
##壺
##盗
##づ
##ぐ
##稀
##種
##境
##権
##融
##ね
##戻
##雨
##兼
##用
##百
##状
##水
##艦
##営
##化
##ず
##力
##犬
##子
##槽
##転
##窓
##餡
##谷
##固
##立
##確
##則
##済
##界
##等
##ぷ
##先
##期
##昇
##給
##む
##本
##率
##協
##会
##総
##研
##究
##川
##束
##架
##起
##頃
##硫
##便
##都
##男
##密
##持
##契
##約
##ろ
##提
##ぶ
##華
##来
##駆
##症
##坂
##は
##身
##破
##面
##々
##巻
##口
##半
##不
##省
##側
##び
##錆
##廻
##負
##戦
##略
##族
##歴
##六
##岡
##紙
##剛
##藤
##房
##病
##豆
##鮮
##丼
##お
##齢
##定
##鋼
##長
##印
##限
##掛
##弱
##習
##貫
##糸
##肉
##美
##中
##務
##労
##ゅ
##認
##元
##銀
##こ
##抑
##業
##点
##副
##苗
##曹
##隅
##血
##二
##万
##値
##抜
##古
##生
##児
##国
##泥
##穂
##雪
##思
##考
##腔
##去
##主
##庭
##薬
##品
##型
##違
##防
##粉
##動
##偏
##牛
##葉
##穴
##末
##描
##そ
##尾
##柄
##管
##舞
##癌
##臥
##皮
##般
##的
##刺
##月
##潟
##県
##市
##液
##山
##角
##詩
##難
##淡
##設
##役
##で
##に
##渡
##倒
##換
##降
##音
##階
##熟
##数
##止
##切
##書
##断
##造
##ざ
##ヅ
##情
##塀
##術
##ぱ
##寝
##話
##態
##根
##成
##電
##捌
##島
##遊
##熱
##重
##板
##波
##桿
##内
##照
##射
##折
##像
##勝
##代
##卵
##寿
##司
##韻
##隣
##誌
##台
##貨
##両
##員
##調
##整
##紋
##流
##売
##横
##沈
##無
##汰
##放
##寮
##活
##回
##煙
##沸
##草
##膝
##原
##ご
##寂
##貌
##退
##格
##走
##抗
##だ
##桶
##飾
##当
##河
##駄
##遣
##馬
##速
##尻
##岳
##券
##銅
##錐
##述
##量
##働
##ぜ
##鉢
##表
##日
##ゃ
##春
##得
##己
##明
##じ
##賞
##髪
##許
##丸
##曲
##馳
##知
##顔
##株
##遠
##臓
##炎
##試
##験
##云
##登
##録
##除
##色
##鳴
##属
##嫌
##玉
##縮
##〇
##置
##紗
##版
##画
##備
##題
##継
##斑
##待
##毎
##肌
##段
##蝋
##残
##変
##投
##刃
##椰
##積
##混
##橋
##土
##濁
##張
##徐
##至
##栗
##ひ
##牧
##野
##全
##奈
##ヶ
##崎
##獣
##胞
##器
##環
##新
##腸
##瘤
##軟
##編
##旨
##ζ
##味
##経
##看
##弛
##仏
##険
##達
##帰
##蒲
##姿
##勢
##盤
##縫
##符
##目
##同
##郡
##黒
##替
##別
##報
##夫
##繰
##灰
##車
##篭
##枠
##素
##揚
##失
##泣
##実
##装
##資
##源
##強
##石
##紐
##求
##精
##樹
##脂
##割
##復
##材
##陣
##人
##大
##気
##名
##倉
##希
##雄
##騒
##曜
##質
##髄
##証
##焼
##繭
##否
##髭
##辞
##望
##蝕
##意
##配
##良
##円
##抱
##満
##多
##区
##楽
##隔
##厚
##籠
##町
##星
##制
##逃
##産
##雷
##篩
##治
##握
##塩
##瓜
##耕
##平
##隠
##挙
##航
##含
##花
##締
##庫
##伝
##票
##軸
##岸
##霧
##嵩
##建
##婦
##仲
##鉄
##現
##終
##路
##検
##侵
##Δ
##φ
##燐
##遅
##集
##溶
##燃
##寄
##欠
##垂
##獲
##訳
##泉
##興
##問
##棒
##一
##致
##痛
##減
##位
##茶
##称
##想
##天
##老
##標
##文
##字
##語
##局
##自
##ゆ
##宙
##連
##瘡
##冷
##橘
##類
##枝
##債
##運
##歯
##婚
##城
##探
##預
##予
##式
##詰
##江
##農
##域
##珠
##有
##凶
##尺
##太
##羽
##少
##喜
##声
##育
##拶
##築
##麦
##酒
##小
##南
##鮨
##過
##膏
##解
##臭
##願
##伏
##弾
##殿
##緑
##英
##ば
##宅
##構
##稚
##移
##尿
##林
##札
##≫
##│
##例
##志
##×
##要
##捻
##砥
##魔
##殺
##消
##舗
##販
##磁
##壇
##場
##絵
##扉
##押
##送
##反
##箒
##酢
##京
##央
##受
##垣
##結
##露
##綿
##球
##選
##条
##香
##ぬ
##肋
##圧
##滞
##柵
##該
##社
##括
##を
##前
##層
##伸
##七
##和
##雑
##越
##供
##課
##急
##宣
##言
##夜
##栄
##舌
##暗
##均
##又
##樋
##火
##進
##荷
##基
##準
##果
##床
##挟
##厳
##毒
##景
##組
##灸
##師
##恵
##相
##傷
##析
##逸
##親
##搬
##村
##更
##園
##餅
##援
##程
##未
##畑
##芸
##対
##使
##被
##貝
##警
##へ
##埃
##畜
##掘
##指
##院
##澄
##養
##肘
##釣
##抵
##倍
##携
##刈
##支
##酸
##頻
##呂
##氷
##告
##杯
##存
##節
##与
##注
##史
##填
##α
##β
##処
##洗
##補
##撚
##助
##垢
##並
##著
##年
##迷
##乾
##燥
##乗
##神
##晴
##唇
##砕
##佐
##針
##麹
##暇
##幟
##縁
##領
##距
##離
##徳
##争
##炉
##跡
##尖
##屋
##敷
##空
##民
##棟
##釜
##斗
##炭
##米
##貯
##様
##漬
##捨
##脇
##脛
##教
##軍
##触
##躍
##迎
##池
##覚
##途
##削
##収
##絡
##芋
##顕
##執
##東
##十
##笛
##隊
##昭
##察
##官
##ょ
##箱
##釈
##羅
##鬼
##痩
##載
##矢
##荒
##室
##技
##枕
##象
##母
##始
##覆
##査
##植
##在
##疹
##菌
##温
##容
##控
##細
##論
##這
##綴
##虫
##胎
##沼
##糠
##善
##償
##暦
##Φ
##輝
##級
##漏
##採
##潰
##純
##企
##加
##記
##暴
##刊
##静
##繊
##打
##箇
##染
##周
##府
##逆
##趨
##他
##紡
##斜
##閉
##丘
##匠
##疱
##擦
##校
##脚
##浄
##震
##療
##女
##朶
##統
##串
##項
##ふ
##沿
##審
##議
##兵
##秤
##士
##傾
##挽
##彼
##杵
##納
##拡
##芽
##ぴ
##駅
##鳥
##船
##賃
##苦
##闘
##荘
##峰
##玄
##巾
##渫
##従
##交
##鑞
##四
##腹
##呼
##汁
##延
##因
##殖
##鶏
##疑
##届
##剤
##衛
##ゞ
##咬
##腐
##迫
##絶
##散
##忌
##衆
##Ψ
##義
##案
##膚
##腺
##餌
##爪
##修
##湯
##仰
##童
##馴
##癖
##辛
##朝
##岩
##砂
##耳
##然
##似
##鋳
##億
##封
##蔽
##晶
##利
##絞
##棚
##堤
##鞄
##膜
##北
##蓋
##湾
##帳
##易
##政
##郭
##貴
##承
##渉
##為
##信
##講
##靴
##爆
##蹴
##才
##妻
##樽
##笠
##章
##攣
##寸
##柿
##諾
##飛
##災
##吸
##休
##律
##蜜
##余
##係
##崩
##際
##奥
##蓮
##宗
##芒
##決
##灯
##秘
##及
##ぽ
##筆
##壊
##常
##瀬
##皺
##棺
##申
##烏
##賊
##裕
##蘇
##請
##策
##硬
##操
##訓
##升
##里
##眼
##翅
##滌
##凍
##旗
##懐
##肥
##吊
##突
##吉
##麩
##綺
##麗
##肩
##圏
##令
##衣
##接
##釘
##弁
##斉
##叉
##季
##阪
##抽
##籍
##健
##雀
##粥
##客
##効
##叩
##談
##飲
##σ
##竹
##覧
##槌
##初
##柱
##襟
##粘
##胆
##鞘
##識
##ぢ
##趾
##蔵
##盆
##肯
##可
##織
##綱
##鎌
##関
##範
##帽
##桜
##判
##栓
##献
##郎
##ヵ
##守
##銭
##腕
##撮
##戸
##御
##撃
##介
##屑
##包
##命
##卑
##八
##梁
##礎
##輪
##湖
##缶
##θ
##μ
##況
##赤
##珍
##示
##視
##繁
##没
##鎖
##訴
##珪
##圃
##ぺ
##白
##忘
##典
##耗
##微
##氏
##摩
##財
##掻
##低
##悲
##単
##粛
##焦
##服
##住
##陽
##委
##託
##門
##践
##燈
##息
##ω
##湿
##寺
##冊
##ρ
##χ
##眠
##豊
##邦
##亜
##鉛
##祝
##蒸
##菓
##濃
##叙
##舎
##虚
##亀
##撓
##創
##竿
##夏
##鼓
##候
##塚
##憂
##鉤
##筒
##翼
##西
##死
##濯
##径
##仮
##顆
##塗
##蹄
##痙
##礼
##蜂
##疵
##催
##肺
##責
##賀
##津
##乳
##鬱
##蠣
##参
##銃
##堂
##功
##且
##囲
##九
##褪
##ξ
##智
##Σ
##δ
##畔
##悪
##塵
##λ
##菜
##禁
##左
##宝
##飼
##之
##須
##冠
##浜
##旧
##彫
##妊
##拳
##正
##首
##蓄
##尽
##潤
##疫
##欄
##護
##菅
##跨
##怠
##脱
##測
##械
##葬
##誕
##旅
##患
##胴
##聞
##鏡
##清
##鋸
##幌
##γ
##桁
##俵
##芝
##吹
##徊
##駐
##虞
##秀
##担
##奏
##由
##鎮
##扱
##懸
##飯
##訂
##硅
##維
##鍋
##茎
##騰
##腿
##繋
##拠
##鐘
##塊
##煮
##牌
##棄
##核
##條
##撲
##犯
##巣
##癬
##蛇
##愉
##快
##念
##王
##錨
##畳
##踏
##蝶
##殻
##宿
##遭
##規
##依
##頼
##共
##映
##蛾
##葺
##紀
##鉱
##雇
##励
##芳
##激
##芯
##買
##富
##件
##胃
##雲
##撥
##寛
##蚊
##泊
##昧
##塞
##永
##螺
##墨
##蒻
##塁
##礫
##幸
##凧
##賛
##排
##薄
##醒
##誘
##貸
##喉
##脈
##充
##片
##刷
##衝
##翻
##裁
##顧
##襞
##揉
##鑑
##簿
##捩
##網
##邸
##損
##底
##訪
##痒
##洋
##醸
##専
##鰭
##浸
##森
##欲
##鹿
##異
##答
##凾
##沖
##ゝ
##枯
##推
##臼
##炊
##以
##剰
##商
##磨
##了
##縞
##恥
##菊
##益
##浮
##系
##暮
##壮
##右
##特
##鰻
##揃
##坐
##撫
##診
##窟
##堪
##椎
##五
##歳
##π
##閾
##伊
##溝
##麻
##幕
##還
##旋
##蒔
##庁
##趣
##掌
##縄
##茂
##危
##仁
##剥
##豚
##脳
##閑
##歌
##近
##複
##塔
##皿
##比
##梨
##屈
##邪
##択
##璧
##却
##▼
##偽
##Γ
##武
##隆
##個
##短
##丈
##朽
##惑
##観
##鼻
##漁
##頓
##煎
##狂
##軌
##葱
##往
##攻
##透
##緩
##玩
##緻
##籤
##兄
##弟
##縣
##譜
##滴
##週
##漸
##猫
##弓
##附
##蕎
##顎
##卸
##錬
##穏
##父
##≦
##敢
##俗
##糞
##陸
##劣
##仙
##模
##膠
##慣
##概
##把
##縦
##栽
##拾
##拝
##随
##徴
##福
##祉
##瞰
##跳
##好
##拙
##魂
##繕
##τ
##毯
##潜
##弊
##畝
##剣
##避
##罠
##杏
##擬
##艇
##挿
##掲
##緒
##世
##倦
##早
##暑
##膿
##砲
##練
##渠
##股
##泳
##珀
##索
##滓
##櫛
##戒
##順
##↓
##施
##菱
##諸
##坑
##窪
##喪
##稿
##摺
##甚
##鋭
##秋
##滑
##遂
##敬
##机
##做
##酵
##飴
##博
##奉
##欧
##苔
##瀝
##署
##響
##吐
##叫
##洩
##隙
##穿
##淀
##埋
##稲
##祖
##何
##詞
##伐
##浪
##痢
##繞
##罪
##洞
##瓶
##腫
##贈
##妙
##宇
##康
##敗
##松
##将
##棋
##曇
##咳
##黄
##摘
##媒
##憶
##竜
##亦
##霊
##躯
##咲
##喩
##蚕
##超
##酌
##樟
##紺
##舟
##巡
##巨
##劇
##彩
##茸
##淵
##杆
##促
##函
##兆
##藁
##醤
##敵
##骸
##汚
##藻
##熊
##任
##□
##堅
##履
##堀
##錘
##革
##幹
##群
##貿
##傍
##襲
##桑
##衡
##敏
##紛
##篤
##寒
##晩
##腰
##帆
##漢
##睫
##潮
##麺
##我
##婆
##爾
##唱
##°
##纏
##籾
##箔
##狭
##糧
##剃
##憩
##茄
##硼
##紫
##昼
##占
##零
##ν
##杖
##優
##賄
##蛸
##〓
##扇
##竪
##改
##η
##恰
##睡
##錠
##雛
##泄
##杉
##捕
##偶
##需
##頂
##崗
##棲
##梅
##汐
##罰
##裸
##較
##噴
##阻
##各
##陵
##Θ
##拭
##杭
##碁
##餓
##痰
##怪
##酬
##祭
##襦
##袢
##悩
##添
##≧
##糟
##脊
##鞍
##凹
##喰
##序
##牡
##鋏
##劃
##再
##鮭
##詐
##欺
##幼
##蟻
##箋
##κ
##梃
##楊
##午
##弧
##稼
##碍
##穀
##礬
##鳳
##窄
##夕
##勘
##頬
##互
##剖
##併
##坪
##喫
##庸
##朗
##渋
##Å
##慢
##肢
##裝
##譲
##廃
##奪
##斎
##飽
##真
##遺
##銘
##粕
##稜
##齬
##縛
##舵
##堆
##窩
##崖
##疲
##尚
##椒
##培
##輸
##筍
##適
##瑚
##礁
##曳
##彎
##藍
##濫
##揮
##遍
##膳
##漆
##堰
##乃
##乏
##潔
##青
##倖
##窯
##孫
##姓
##凸
##砒
##牙
##到
##涼
##轄
##撒
##Λ
##威
##盲
##矩
##忍
##搗
##檀
##故
##釉
##停
##謝
##蒙
##按
##暖
##茹
##羊
##椅
##撤
##ψ
##銹
##絹
##捉
##伴
##酔
##霜
##賦
##免
##桝
##窃
##貼
##磯
##塾
##盾
##逐
##遵
##赴
##閣
##軽
##駒
##鈎
##笑
##掃
##款
##腱
##殼
##輌
##杓
##唆
##匡
##坏
##痔
##冬
##捏
##濾
##胛
##隈
##汽
##咽
##兎
##幻
##嚢
##怖
##漉
##粧
##涯
##丹
##躇
##瞼
##屏
##追
##胸
##討
##巧
##縒
##独
##募
##猛
##捜
##楔
##騎
##絖
##俊
##弦
##克
##禽
##牢
##灌
##厨
##焚
##頁
##桐
##鮎
##派
##滅
##就
##凝
##酷
##噌
##是
##憑
##炒
##慶
##渇
##誠
##汲
##陰
##踊
##緊
##亡
##駕
##嚼
##鏝
##矛
##鍵
##競
##盟
##扶
##扼
##卜
##呆
##遇
##措
##第
##沫
##仔
##帛
##歇
##胡
##鉾
##肪
##捲
##鍛
##徒
##驚
##泌
##蔓
##脾
##監
##今
##鈴
##吻
##街
##涙
##裡
##壜
##鳩
##緯
##鼠
##靭
##效
##紅
##拓
##奇
##拘
##鍬
##抹
##罐
##播
##眉
##如
##瞳
##漿
##彙
##漕
##О
##棹
##腋
##貧
##衰
##雅
##稈
##浅
##椀
##艶
##框
##闇
##喘
##最
##掴
##豪
##溢
##臨
##芥
##敲
##煤
##展
##梯
##錦
##漠
##鱗
##刳
##衿
##∠
##枚
##蒟
##擲
##徹
##啓
##截
##≒
##泡
##芻
##拍
##若
##澱
##陶
##忠
##督
##韓
##肝
##完
##汗
##梢
##搏
##戯
##簾
##疾
##黙
##奮
##閃
##臀
##綜
##据
##廉
##祈
##貢
##揺
##漫
##鴨
##桟
##舷
##∫
##Ω
##侯
##晒
##擁
##硝
##窒
##喚
##桃
##痺
##賠
##渓
##呈
##娠
##粗
##搾
##弯
##耐
##煉
##陥
##輳
##斥
##檜
##尊
##悟
##岐
##倚
##焔
##壌
##秩
##昆
##斂
##梳
##頗
##褥
##寧
##遮
##±
##斯
##鯨
##掬
##夢
##棘
##鉋
##癒
##幣
##鍍
##猶
##謂
##寡
##困
##亢
##沃
##柔
##灼
##黴
##歪
##溌
##眩
##枢
##廊
##累
##軋
##宛
##烈
##倣
##虹
##柑
##滝
##粋
##恩
##尤
##忙
##腎
##亘
##牲
##痘
##曝
##卒
##非
##瘻
##銑
##碗
##捗
##翔
##鍼
##挫
##卓
##秒
##渦
##必
##瞬
##歓
##梗
##捺
##郵
##唯
##碑
##呑
##尋
##碇
##攪
##娘
##戴
##乍
##汎
##煩
##授
##酪
##斬
##槍
##筈
##壷
##鞭
##朱
##舶
##箸
##鈍
##堝
##畦
##耘
##逹
##享
##誰
##裾
##逢
##膣
##糊
##→
##宴
##怒
##匹
##拌
##宜
##庇
##蟹
##綾
##篠
##肛
##勉
##脆
##桂
##噛
##雌
##陳
##錫
##轟
##濘
##此
##巴
##恒
##褐
##穫
##擾
##錯
##釦
##弗
##焙
##胱
##私
##窮
##膨
##暈
##犠
##痴
##紮
##鹹
##隘
##旦
##鍔
##笹
##双
##於
##瘍
##蕾
##迂
##旬
##沓
##濡
##燻
##疇
##魅
##旭
##龍
##渣
##奨
##慌
##遷
##↑
##凭
##呉
##弔
##鋲
##筐
##抉
##吟
##循
##甘
##狙
##凌
##燭
##笥
##簀
##溺
##既
##妄
##盪
##嚥
##筺
##罫
##△
##○
##簡
##竄
##燵
##瑯
##饅
##招
##或
##殴
##而
##鰹
##恐
##勧
##鬆
##肖
##迄
##摸
##脹
##湧
##軒
##匿
##矯
##鈑
##套
##●
##悉
##蔗
##輻
##遜
##葛
##艙
##遡
##蛍
##扁
##嘔
##辷
##杼
##只
##柩
##疎
##頑
##胚
##儘
##υ
##墜
##帖
##薯
##蛋
##嗜
##棧
##遥
##轍
##頚
##苛
##紹
##擂
##姜
##詳
##躓
##▲
##苺
##筏
##襖
##毀
##漑
##閲
##叢
##卉
##諦
##匐
##熔
##娩
##匂
##墓
##購
##即
##楕
##■
##橈
##藷
##絨
##綻
##箕
##峻
##鋤
##瞥
##坦
##凡
##枡
##鹸
##瞭
##萄
##踝
##牽
##喋
##披
##撹
##繍
##嘱
##箪
##翌
##甜
##皆
##拗
##瘢
##莢
##昂
##誇
##夾
##橇
##冒
##珊
##慎
##滲
##班
##惰
##惧
##薪
##乙
##筬
##熨
##藺
##蛹
##雫
##槓
##潅
##臍
##救
##瑣
##偵
##靱
##厄
##摂
##萎
##踵
##梱
##迅
##挾
##雹
##抄
##峙
##淘
##詮
##搭
##郊
##輛
##諧
##贋
##稠
##謄
##爽
##嚇
##殆
##酎
##滋
##普
##齧
##嘴
##唾
##扞
##昨
##鍮
##膀
##浚
##緘
##唐
##幾
##洪
##稔
##醗
##葡
##召
##瓢
##遙
する
前記
こと
装置
手段
ある
請求
から
発明
より
##ータ
でき
れる
特徴
記載
よう
##する
また
できる
上記
いる
この
情報
ため
おい
形成
##ット
なる
データ
制御
方法
られ
その
信号
画像
##ート
##ール
処理
及び
もの
##ング
位置
方向
構成
せる
可能
場合
##ック
部材
ない
表示
検出
設け
##ード
複数
よっ
有する
備え
##ップ
とも
およ
および
あっ
出力
状態
記録
接続
用い
##ステ
回転
##ース
基板
回路
コン
##ーム
少な
所定
領域
記憶
製造
入力
工程
よる
以上
行う
10
樹脂
使用
少なく
##ター
対し
発生
提供
##ント
##スト
移動
それ
あり
駆動
設定
イン
これ
##ステム
おけ
よれ
素子
電極
##ずれ
##導体
システム
##ッチ
表面
いずれ
られる
ステ
供給
フィ
プロ
半導体
部分
構造
受信
目的
さら
基づ
さらに
##ラン
通信
関する
選択
含む
操作
配置
##ネル
##付け
送信
温度
##ーク
なく
固定
##ッド
対応
支持
必要
とき
ポリ
電圧
金属
保持
有し
大き
##イン
##ーザ
##イル
時間
など
電子
##まし
生成
##ーブ
問題
ガス
本体
シート
##えば
いう
フィル
##ライ
材料
なり
従来
測定
媒体
取り
##ぞれ
それぞれ
##ージ
動作
ステップ
基づい
効果
以下
##ンサ
##ラム
アル
変換
かつ
防止
例えば
結果
##える
一方
##ンプ
好まし
ディ
##バー
##スク
ファ
端末
しか
当該
##ョン
搬送
印刷
成形
機能
サー
利用
介し
応じ
形状
##レン
作業
##合物
変化
##ターン
加熱
調整
遊技
##ロック
開口
なっ
##ション
##クト
管理
##キシ
キャ
機構
電気
判定
含有
パターン
##ンド
##00
##イド
電流
##ウム
加工
特に
係る
アク
まで
##いは
##ーラ
部品
成分
シリ
センサ
絶縁
##ープ
得る
再生
容器
示す
容易
##グラム
空気
##ラス
##ニット
##なる
##出し
向上
範囲
11
化合物
連結
端子
##イッチ
ユニット
##スタ
##モリ
組成
対する
自動
フレ
特定
##レス
生じ
光学
##しく
導電
内部
メモリ
スイッチ
##ラー
##がら
うち
電源
ながら
酸化
受け
タイ
対象
ヘッド
課題
更に
配線
反射
車両
##ルト
読み
レン
実行
プログラム
接触
プリ
特性
##データ
12
備える
比較
識別
おり
速度
外部
##ンク
燃料
##レー
機器
ユーザ
##ナー
解決
##クタ
周波
小さ
##ランジ
インク
用いる
##込み
##ティ
よい
条件
しかし
あるいは
##リー
フレーム
冷却
発光
##リング
レンズ
##レート
反応
検知
変更
要求
周波数
フィルム
##ベル
交換
高い
補正
##ーブル
収納
抵抗
チャ
異なる
ディスク
##ピュ
##チル
##わせ
##ケット
好ましい
##フト
基準
電力
##ピュータ
パネル
##タル
算出
現像
挿入
結合
##ンジ
##める
一部
20
従っ
レーザ
スト
##コン
圧縮
分離
取り付け
つい
画像データ
圧力
##クロ
重合
ブロック
ローラ
接着
##オン
磁気
先端
##セス
除去
画素
ネット
振動
格納
空間
モータ
モード
粒子
取得
##ディ
効率
アン
低下
液晶
##なわ
安定
停止
演算
##レイ
シール
大きく
達成
決定
切り
端部
強度
作用
接合
##ワーク
##ニル
転写
優れ
##リア
作成
有機
しま
15
音声
撮像
弾性
中心
運転
コンピュータ
かか
ネットワーク
積層
外周
抽出
設置
##ンタ
サイ
のみ
13
対向
電池
ゲート
レベル
たり
伝送
##メント
ガイド
コイル
予め
距離
技術
##タン
符号
##マー
照射
ガラス
無線
乃至
合成
映像
##ジェ
排出
トナー
説明
装着
だけ
行わ
且つ
作動
##ンダ
なさ
連続
##テン
##フィ
分割
混合
濃度
開始
##ッジ
##がっ
##ファ
##ドレス
存在
水素
##して
##しくは
##ジタル
にて
ケース
##ックス
好ましく
低減
同一
##処理
##ンス
##ランジスタ
サーバ
洗浄
そして
含ま
取付
##なわち
すなわち
開閉
自在
収容
なら
##チレン
トランジスタ
カバー
フィルタ
検査
組み
プラ
間隔
##ズル
保護
繊維
上述
文字
一般
走行
互い
実施
物質
##ルス
具備
ノズル
負荷
14
判断
指定
フォ
##テナ
##クリ
チップ
##ーン
##れる
指示
吸収
確実
感光
一定
液体
ダイ
沿っ
中間
検索
##ッシ
燃焼
ビーム
携帯
撮影
容量
しまう
方式
かかる
した
登録
##合わせ
塗布
精度
##取り
排気
単位
30
一体
設ける
角度
したがっ
抑制
##ジュ
種類
走査
セル
##ンジン
転送
上部
配列
触媒
吐出
分散
アドレス
##時間
問題点
100
##かっ
突出
コード
イオン
スペ
ライン
他方
##ステル
パルス
通路
充填
##フェ
流体
シャ
コスト
硬化
添加
##ミング
放電
画面
##イス
光源
エンジン
ビット
側面
傾斜
透過
有効
##メラ
小さく
全体
関係
計測
実現
監視
フェ
上下
生じる
加え
平均
##ジュール
簡単
伝達
##ーション
位相
経路
薄膜
##ビス
バッ
原子
認識
商品
波長
噴射
ポンプ
被覆
変動
印加
行な
可動
50
切断
μm
変形
##ニウム
同時
通過
内容
水平
##ネルギ
可変
通常
##テンツ
ベース
態様
活性
分解
ファイ
##キル
16
貫通
同じ
コンテンツ
引き
##リル
炭素
エネルギ
ベルト
凹部
案内
アクセス
ブラ
ないし
電話
テーブル
中央
プリント
サービス
外側
スライ
コネ
プレート
シリンダ
ファイル
磁性
形態
##ュー
露光
ロール
関し
##ーダ
内側
##ころ
結晶
ポリエ
分子
ところ
導入
マイ
何れ
付け
要素
透明
重合体
機械
mm
##ッチング
##セル
垂直
パラ
下部
もしくは
決め
リング
アミ
トラ
##アル
増幅
タンク
押圧
テープ
ロック
付着
関連
乾燥
段階
同期
##イヤ
鑑み
##セット
アルミ
##ーカ
##バイス
異常
計算
平行
タイミング
左右
モジュール
バル
しかも
デジタル
吸着
レジ
十分
基材
すれ
大きい
スリ
相対
書き
期間
バイ
担持
メッ
符号化
カード
良好
各々
アンテナ
##リッジ
取付け
程度
アーム
導体
隣接
面積
##ッシュ
製品
合金
高く
##ラミ
カメラ
複合
溶融
付加
突起
ゴム
確認
デバイス
##込む
エア
ファイバ
嵌合
コネクタ
置換
ウェ
21
##ニング
上面
受光
カラー
放射
そこ
任意
べき
誘電
電解
カル
拡散
同様
アルキル
##まり
参照
流路
##レータ
##トロ
クロック
付与
キー
平面
##メータ
クラ
電磁
断面
##ガス
近傍
維持
##ダー
増加
次元
##ジング
パイ
最大
判別
機関
よく
蓄積
##出す
ハウ
応答
照明
マスク
##ロー
##トリ
溶接
一端
##ボン
リード
シリコン
##ランス
影響
ここ
補助
確保
写真
エッチング
係数
上方
18
環境
回収
##ッタ
原稿
寸法
研磨
所望
##パー
目標
行なう
ケーブル
番号
上昇
評価
サイズ
軸受
性能
基づき
終了
25
低い
ピン
以外
チャン
##ベース
ハウジング
通知
含み
セラミ
##ルク
バルブ
なお
##上げ
直接
スプ
##コール
利用者
ワイヤ
粉末
押し
文書
22
電位
データベース
酸素
変調
原料
##ティング
小さい
行い
パケット
載置
困難
更新
重量
チャネル
制限
部位
##イト
搭載
情報処理
流量
高速
ほぼ
注入
##クル
大きさ
グル
行っ
ワーク
好適
実装
調節
エネルギー
定着
加圧
##り返
適用
ホル
配管
多く
大きな
分布
下方
マイクロ
均一
パラメータ
入射
接着剤
回線
図る
17
成る
電動
読取
##けれ
##ールド
40
小型
端面
付き
遅延
オー
向け
トルク
試験
両端
相互
##チュ
変速
冷媒
求め
円筒
出来
クロ
##込ま
設備
変位
##換え
保存
周期
補強
箇所
##しい
##クトル
各種
酸化物
帯電
インター
循環
復号
##ロット
##デンサ
IC
規制
##ッケ
オフ
コンデンサ
##スプ
減少
スライド
試料
##ゲン
パイプ
コントロ
なけれ
剥離
ウエ
状況
認証
##出さ
周囲
##ズマ
##ネット
摺動
発泡
カウ
ごと
メタ
正確
コア
やす
プラズマ
合わせ
フラ
##らか
推定
バック
19
スイッチング
設計
プロセス
配信
真空
リンク
サブ
##たり
金型
Si
カート
順次
蛍光
##装置
発熱
一致
トリ
即ち
##キサ
環状
消費
レール
集積
摩擦
##プロ
解析
ロータ
##ける
時刻
開放
##ブル
生産
固体
##ーシ
良い
遮断
溶液
初期
或いは
着脱
##セージ
ノード
アルミニウム
スラ
誘導
用紙
全て
##エータ
最適
指令
誘電体
光学系
ハロ
内周
プリンタ
##替え
ずれ
##よう
共通
放送
周辺
組み合わせ
前後
増大
ブレー
表す
直交
印字
##がり
多数
クラン
解除
##アップ
##ジェット
下記
##ッキ
##めて
超音
##アミ
メッセージ
送り
長手
与える
予測
##ワー
隙間
##ノール
ドライ
磁石
カートリッジ
発電
超音波
中空
昇降
##イズ
ボール
##ストン
裏面
サンプ
コンクリ
##キャ
プラス
インクジェット
##周波
スク
ランプ
カー
通し
劣化
放出
信頼
繰り返
コンクリート
##ッサ
高温
なかっ
吸引
ピストン
ター
巻き
回転軸
まま
厚み
ゲーム
座標
分岐
##チック
コー
オン
##ネート
パッド
充電
スピ
ハロゲン
エレ
持つ
##ドロ
##プリ
流れ
スタ
誤差
膨張
##わる
油圧
暗号
折り
現在
回数
ソース
露出
バッファ
つつ
含ん
エステル
投入
安全
圧電
不純
密度
##げる
図柄
記憶装置
ブレーキ
##ビン
荷重
包装
##ルチ
##酸化
両側
品質
##ジェクト
比べ
少ない
アルカ
フランジ
ポリマー
偏光
##リップ
グループ
ねじ
レバー
発振
物品
##リーン
##チュエータ
##イント
内面
直線
採用
炭化
比較的
電荷
##塑性
23
波形
送受
ID
ポート
無機
質量
改善
揺動
切換
アミノ
粘着
側壁
重ね
良く
##スプレイ
##外線
##バータ
ドラム
アクチュエータ
ポリエステル
化学
24
出し
チュ
望まし
封止
自動車
##ウェ
溶解
読み取り
物体
熱可
熱可塑性
分析
チューブ
メチル
セット
特許
60
輝度
同士
##レイン
##コード
内燃
nm
##カル
接する
##ライア
Al
##込ん
バー
カム
割り
不良
信頼性
フロ
他端
論理
筐体
最も
命令
ボルト
モノ
蒸気
##なり
##OS
延び
キャリア
帯域
レジスト
示し
水溶
最小
ジョ
##水性
##メージ
不要
直流
##カー
高周波
アルカリ
静電
プラスチック
セラミック
スロット
ドア
不純物
反転
##テル
排水
ハンド
##ライアント
具体
自動的
前述
##オード
非常
選ば
##フィン
工具
スル
ヒータ
オブ
クライアント
チェ
並び
元素
潤滑
##チン
独立
求める
表さ
あれ
未満
出来る
障害
多孔
マルチ
素材
200
##レット
顧客
定め
キャップ
モデ
発明者
コマ
ファン
パワー
検出器
オブジェクト
考え
マーク
与え
窒化
送受信
示さ
極めて
反対
複数個
欠陥
基地
吸気
##ッパ
屈折
アクリル
高める
##ーテル
シフト
リン
##当て
##フェース
フッ
実質
気体
公報
凹凸
31
微粒
場所
スペース
タイヤ
##ディング
密着
多重
運動
##ライト
コンタ
報知
##リン
下端
溶媒
対象物
混合物
手順
前方
##レーション
電界
限定
##ウン
実際
姿勢
ノイズ
いっ
共振
起動
低く
旋回
##トラ
覆う
ディジタル
シャフト
下流
切替
許容
自由
基地局
界面
修正
凸部
配合
流入
新た
発信
項目
車体
バス
##回路
イメージ
入出
高圧
コンタクト
飽和
並列
エリア
干渉
若しくは
着色
##デオ
入賞
加速
エラー
奏する
半径
基づく
微粒子
基体
属性
圧縮機
廃棄
底部
##っき
室内
ビデオ
適切
##ポキシ
流動
にく
書き込み
組立
集積回路
望ましい
優先
基本
実質的
##キュ
##シン
導波
X線
具体的
上端
クラッチ
施工
規定
受ける
##ログ
能力
チャンネル
cm
ソフト
トランス
番組
サイクル
##シウム
放熱
流れる
##付ける
底面
##フォ
マグ
ヒドロ
前面
##レフィン
成長
スリット
しよう
下面
断熱
動力
パー
##ッケージ
ホルダ
##ピング
アレイ
割合
モデル
アプリ
衝撃
テスト
投影
##チャ
めっき
90
ベクトル
細胞
トラック
起こ
ドレイン
挙げ
モル
パッケージ
繰り返し
脂肪
複雑
加算
軸線
診断
読み取
##媒体
圧延
解消
立体
一層
グラ
ディスプレイ
出口
##ーシング
拡大
ミラー
射出
通電
##リーニング
記憶媒体
ポリオ
##クシ
浄化
販売
##ウト
シールド
32
動き
##活性
塗料
グリ
ジャ
微細
ロッド
キャビ
交流
エポキシ
##チド
故障
コマンド
固着
応力
過程
ピッチ
接点
蒸発
##パス
安価
作製
アナ
アプリケ
歯車
仕切
べく
パス
化粧
##ースト
モニ
エッジ
進行
自体
##in
##メチル
オイル
考慮
移動体
ケーシング
芳香
##結晶
耐熱
##ーサ
中継
ページ
プレス
粒径
閾値
##ウェア
車輪
##なっ
コンベ
##セッサ
入出力
チタン
コントローラ
送出
窒素
金具
ビニル
相当
壁面
80
ライ
後方
上流
仮想
接地
支援
特別
収集
編集
格子
ホール
時点
交差
エチレン
詳細
##電池
光軸
多層
##ンパ
短縮
レーザー
広告
個別
##分子
高分子
##ッション
関数
送風
##er
動画
際し
継手
補償
マトリ
完全
溶剤
##ブリ
小型化
##ーマ
ブレ
点灯
熱処理
##ーズ
##番号
01
暗号化
満た
35
プローブ
可能性
本願
テレ
向かっ
経過
つまり
ショ
太陽
回転体
観察
巻線
スパ
スペーサ
ばね
##グメント
直列
雰囲
雰囲気
食品
メン
鋼板
機械的
26
不可
相対的
使用者
被写
##アリング
バッテ
成膜
70
スケ
##合せ
相手
##ナル
効果的
還元
集合
接し
ブラシ
取り付ける
文献
メール
アナログ
回避
クリーニング
##ンター
ヒドロキシ
履歴
始動
完了
ネジ
##ワード
##たっ
サイド
自己
水分
粉体
##ッター
たと
要する
移送
候補
フォト
大幅
境界
電話機
多い
冷凍
種々
バイア
顔料
スクリーン
##ルオ
紫外線
配向
定義
所定時間
CH
記し
タイプ
##シア
形式
おく
##ホン
両面
貯留
##ンチ
読み出し
追加
スキャ
含有量
付近
給紙
被写体
階調
施す
振幅
促進
延びる
衝突
ピーク
詳しく
欠点
有利
絞り
内蔵
最終
剛性
治具
レジスタ
把持
長く
近接
##NA
なす
電線
伴う
安定性
##クション
焦点
##ニア
架橋
入口
焼結
##クス
伸縮
##リウム
##プロピ
曲げ
誘導体
屈折率
塩化
固有
ホスト
ウエハ
平坦
##ピン
焼成
起因
地図
メイン
フッ素
個人
インバータ
提案
有無
削減
両方
低温
切り替え
揮発
原因
整数
吹き
クランプ
##メール
フィルター
介在
切削
輸送
構造物
##ッキング
##ッグ
流出
双方
並びに
##わり
発行
II
##ミュ
連続的
アセ
Ti
##ミリ
アップ
スリーブ
##カード
00
減衰
建物
区間
トレイ
改良
やすい
センサー
##ダイ
閉じ
アルコール
バイアス
なし
入り
貯蔵
##入れ
増幅器
描画
周縁
背面
消去
回折
排ガス
ドット
##クシミリ
##ジン
ファクシミリ
##方法
インタ
阻止
組織
ステージ
施し
制動
分子量
器具
直径
行える
##ライン
ジョブ
バンド
ボックス
##ボット
構築
もっ
電動機
埋め
##リーム
電波
収縮
スポ
物理
残留
モニタ
##情報
イソ
連動
ループ
インキ
ブラケット
当たり
磁気記
割り当て
電解質
式中
予約
ラジ
耐久
リブ
大型
可撓
##ズム
コンパ
正常
##エン
##ーバ
コーティング
開示
到達
効率的
アプリケーション
カウント
緩衝
数値
遮光
##ダル
一時
電子メール
##止め
磁気記録
磁界
##ーパ
放射線
エン
ボタン
支柱
新規
45
簡易
適し
プロセッサ
密閉
##端末
夫々
適宜
貼り
汚染
標準
##わら
セグメント
系統
たとえば
プロピ
##レタン
軽量
レート
プラグ
潜像
##ディア
やすく
軽減
アイ
カップ
開平
堆積
101
光量
給電
移行
粘度
ハイ
攪拌
ポイント
羽根
平板
通り
CP
##合う
半田
空調
##向き
生体
相関
遮蔽
間隙
識別子
微小
塗装
##手段
ハンドル
一般的
偏向
どう
取り外
購入
専用
メモリセル
##せる
迅速
テレビ
ほど
合する
外径
継続
サンプリング
すべ
陰極
抑える
携帯端末
##ックアップ
意味
長期
キャビティ
減速
利点
##つき
比率
流通
取引
道路
外面
入れ
##グラ
ナット
27
整流
下側
近い
ラベル
禁止
満足
ハード
通じ
閉塞
##ビニル
フィールド
持ち
MOS
##on
湾曲
##コスト
個々
防ぐ
サンプル
照合
フェニル
検討
発揮
##アウト
揮発性
メッキ
オフセット
差分
##がる
ダクト
28
##マル
許可
バネ
掘削
##まる
事情
##コンピュータ
オペ
耐久性
層間
ポリエチレン
##かり
通気
表現
ブレード
分類
ダイヤ
通話
51
着信
演出
##ミド
ビス
延長
CO
カーボン
損失
主成
主成分
廃棄物
内壁
遠隔
往復
カルボ
解像
吸入
屈曲
リン酸
寿命
調理
無く
向き
光電
途中
部内
損傷
落下
導通
##アミド
エチル
33
オリ
植物
ヒート
締結
##ャップ
融点
##チウム
離間
展開
塩基
リール
円形
現象
単一
カセット
フィード
順序
伴っ
##リティ
量子
タグ
インターネット
モノマー
充分
ユーザー
済み
CPU
耐熱性
文字列
ロボット
##ダイオード
取り出し
圧接
一体化
41
プレ
もと
光束
ストッパ
##ッピング
300
警報
濾過
##ファイル
おそ
適正
##クター
給水
リチウム
被膜
蛍光体
記述
止部
リスト
ばら
##ッパー
切り換え
依存
明らか
##ルオロ
交互
極性
##イール
おそれ
天井
ピックアップ
確率
コントロール
遺伝
ペースト
皮膜
塗膜
##モータ
##ロース
##ET
予備
##ピー
バッテリ
集光
保管
カウンタ
感光性
体積
静止
##トキシ
改質
バランス
単量
バイン
ダウン
減圧
##ーカス
##コキシ
屋根
短く
面上
破壊
500
##システム
自然
セラミックス
合計
異物
区画
フィン
ストリーム
##フタ
学習
##替える
##パシ
感度
永久
##キング
縮小
立ち
気泡
粉砕
噴出
完成
しき
シリカ
重要
伝導
知ら
リモ
複写
しきい
##50
段差
しまい
##ピーダ
音響
誤り
##フィル
##ピーダンス
どの
光路
52
##ロン
平滑
長い
両者
##キスト
建築
##換える
易く
炭酸
Ni
ストロ
提示
##ポリ
不具
##じめ
チェック
該当
うる
治療
ハー
##ol
シー
フロー
異なっ
アンモ
Fe
ゲル
通さ
二次
センタ
##バッグ
不具合
復調
二次電池
押出
##ーリ
キャパシ
##トリウム
解像度
亜鉛
ソフトウェア
##合い
カット
遺伝子
##ニオン
歪み
対物
表し
トン
短時間
破損
水溶液
インピーダンス
軸部
超える
固形
ギャップ
##電話
ギヤ
すべて
とっ
押さ
分配
インタフェース
後端
軌道
##ED
基礎
34
カルシウム
曲線
PC
##バック
延伸
##ーハ
吊り
上位
シクロ
##曲げ
見出し
励起
42
低コスト
パチン
コンベア
スクリ
ステータ
パチンコ
述べ
組合せ
アルコキシ
製作
材質
上側
係り
##接触
非接触
##ボル
外観
スチレン
スピーカ
##コーダ
##ティブ
清掃
シン
矩形
領域内
オーバー
被検
加速度
##立て
IP
いく
操舵
##リール
集中
要旨
離れ
蒸着
単結晶
ボン
強化
##キサン
##リコール
侵入
用途
待機
時期
おき
次い
開発
##ディオ
シミュ
##ゲット
織布
差し
界面活性
界面活性剤
管路
##レング
手間
##ッケル
区分
水性
レイ
##プレ
下地
エレメント
所要
フック
長尺
##プチド
図形
止め
導出
切欠
頭部
埋設
空気調
36
打ち
ウォ
洗濯
##ャル
次いで
把握
##プタ
ナトリウム
ニッケル
シェ
空気調和
如く
##al
一体的
ラッチ
##an
トンネル
スプリング
水溶性
金属製
ターゲット
鋭意
オーディオ
##ロード
##レオ
締め
突き
もつ
易い
Cu
くる
側端
##フレ
##ゆる
点火
代表
##ポート
削除
わたっ
ヒンジ
29
05
ケイ
ICカード
内径
##ゾン
ばらつき
塩素
チャンバ
探索
混入
上限
マグネ
携帯電話
##スペ
属する
##ラクタ
共有
プロト
##ーチ
隔壁
線路
成型
満たす
ホース
陽極
伝送路
抑え
部分的
回り
##抜き
遷移
騒音
ロー
##カメラ
##だし
研削
ウェハ
センター
たい
観点
担体
磁性体
正極
作業者
LED
円弧
温水
外装
テトラ
単独
フレキシ
酢酸
結像
可視
##ジョン
ベン
受信機
アクリ
リセット
あらか
導光
あらかじめ
##基板
プリント基板
復帰
張力
DNA
##at
スペクトル
番目
キャパシタ
ドライバ
##コア
##AM
安定化
##イソ
摩耗
##ダクタ
基部
整合
定数
##ランド
柔軟
##コル
ホルダー
タイム
##キシル
オレフィン
患者
##レングリコール
にくく
DC
レイアウト
凝縮
フレキシブル
オゾン
102
有用
##コーン
超え
言語
給湯
負極
ダイオード
サーボ
フォーマ
発現
著しく
クラス
拡張
##ベント
にくい
NO
鋳造
漏れ
##ずる
##ラスト
pH
予定
頻度
生産性
強制
##取る
台車
カルボン
広い
バイパス
ワード
凝集
##VD
ヘッ
模様
タンパ
大気
##かる
高め
液状
短い
防水
車載
##ベータ
エンド
##or
用意
ボディ
セルロース
面部
ウェブ
フェノール
計数
個数
硫酸
類似
##テナンス
適合
撹拌
汚れ
電磁波
抜き
体部
残り
はん
000
背景
排気ガス
閉鎖
最初
光線
蓄熱
点数
##ログラム
医療
型枠
電話番号
硬質
シリコーン
薬剤
タンパク
変性
破砕
外気
外壁
抽選
選別
##en
コンパクト
ブチル
下降
セパ
合し
フロント
##生物
階層
斜め
希望
エレベータ
価値
いわ
微生物
期待
##アドレス
硬度
ならび
不可能
浸漬
磁極
出願
出射
##上がり
アリール
テーパ
1000
フォーマット
使い
バンプ
##ンション
差動
##シアネート
施設
折り曲げ
主面
容積
業務
##らす
積載
シンボル
小さな
メンテナンス
棒状
イベント
汚泥
量子化
伸び
Cr
切り替える
##TM
表わ
側部
##ブラ
組み立て
振動子
板材
メディア
アミン
##伝導
料金
配線板
マス
行なわ
不足
仕様
限界
##タイ
利得
合さ
エアバッグ
封入
活性化
150
引っ
依頼
種別
セメント
まず
ずつ
変える
空隙
復元
オキシ
広く
絶対
バインダー
向か
官能
コピー
スポット
達し
受付
マトリクス
ポリオレフィン
負担
手動
研究
阻害
気密
保守
単語
課金
##ゾール
##トル
ラック
施さ
ボンディング
水中
引張
タービン
受容
マウ
はんだ
開度
クランク
再度
不正
短絡
##ジウム
ルー
タンパク質
##ラル
殺菌
挟ん
##ルフ
傾向
含浸
カプ
補給
感熱
色素
円滑
##シル
##ゴム
アダ
セパレータ
後部
##ロール
外方
プライ
補間
持た
赤外
磁束
再現
フイル
読み取る
硬化性
直角
感知
駐車
##ネス
マグネット
傾き
##レル
透光
基準値
##速度
同軸
理由
水酸化
末端
液滴
掛け
キャラクタ
脚部
スクロ
密封
##アン
ヨーク
パレット
小径
スキ
抜け
フィードバック
終端
平均値
インダクタ
ホイール
脱水
マスタ
実用
空燃
調製
側板
枚数
磁場
自身
酵素
SO
注文
スキャン
シミュレーション
##ーパー
スパッタ
圧着
散乱
取り出す
緩和
##ic
装飾
Mn
キャッシュ
##オキシ
55
110
脂肪酸
##アミン
重み
ては
接近
染料
いわゆる
CD
ポリアミド
ソケット
螺旋
全面
リソ
輪郭
優れる
120
液圧
スクロール
かけ
##ボネート
培養
伝熱
湿度
管内
##プロピレン
至る
珪素
##CD
視聴
マット
加入
ボード
##重合
積分
##なう
手法
フォーカス
圧入
換気
シーケ
トレ
##フェニル
離型
接さ
安全性
テキスト
保つ
##フルオロ
生ずる
滑り
クラッド
重ね合わせ
暖房
マトリックス
無駄
シャッタ
地盤
ライト
しめ
要因
計算機
##ミー
送ら
片面
##ミッタ
燃焼室
回転子
##AN
加える
膜上
wt
混練
EL
固化
皮膚
経由
##クリレート
##ンガ
至っ
冷蔵
##都合
現場
あたり
メニ
先行
##やか
強い
制約
ゲイン
冷却水
こう
危険
##ビゲ
視認
偏心
ジメチル
準備
##シリ
取り外し
等しい
インデ
重畳
無い
倍率
簡便
検証
図面
103
系列
溶着
スラリー
エアー
気化
側方
##切り
61
訂正
##レーン
特殊
周り
バックアップ
##レジ
Co
チャック
分野
移動手段
発振器
##OM
円周
一種
チェーン
クッション
パンチ
ウィ
プーリ
プロトコル
運搬
コンバータ
すぎ
In
赤外線
伸長
浴槽
噴霧
生物
線材
エーテル
##サイ
画質
薄く
ダミー
成立
モールド
拘束
##インド
運転者
張り
既存
不能
導く
##かし
53
筒部
カテ
不活性
切り換える
読み出す
気筒
人体
##ビゲーション
持っ
雑音
発電機
ポリウ
悪く
対策
係わる
##レクタ
エラスト
ステアリング
曲面
##ジェクタ
悪化
フイルム
地点
ドライブ
難燃
##クレオ
置き
限ら
スライダ
ウェーハ
同等
##要素
伴い
越え
なくなる
MP
つな
シュ
構成要素
ラン
折り畳
様々
インターフェース
##クリル
##ボード
押さえ
天然
必ず
ローラー
公知
遠心
400
ヘッダ
工法
##わっ
プラント
SiO
バリア
マグネシウム
セキュ
##ro
大径
Ga
溝部
ポリウレタン
コロ
腐食
潤滑油
##繊維
技術的
43
オペレータ
ポリプロピレン
演奏
析出
##ec
##ミン
転動
親水性
残存
常時
勾配
##ゴリ
##らし
アミド
偏差
記主
二酸化
店舗
##ホール
ステン
指標
ワイヤー
38
球面
異方
ピク
本来
適当
アルミナ
一旦
Ca
吸込
##キレン
##んど
クロス
Mg
直前
投射
ゾーン
アクティブ
辞書
呼び
##ンブリ
宛先
##クレオチド
##pm
資源
融着
##ギヤ
粘着剤
再び
工事
薄板
加入者
##オフ
計量
計画
その後
帯状
##まっ
地域
主体
##オール
運用
キーワード
並べ
対称
引き出し
狭い
焼却
長時間
##距離
観測
##ーリング
整列
曲率
とる
成り
プリズム
飲料
抗体
達する
配さ
天板
ケイ素
透過率
タッチ
水酸
Zn
##イミド
##ソード
耐火
併用
電解液
配送
シーケンス
但し
室外
バラ
アウ
シャッター
アンプ
##ニン
不都合
於い
押え
##IS
マニ
カソード
アンカー
##ページ
37
##フィルタ
ランダ
大量
顕微
ほと
残量
ほとんど
既に
一時的
##分け
固定子
上層
透過性
高価
一連
バーナ
積み
##ツキ
III
受け付け
メタル
乗員
ランダム
単に
62
ランド
スルホン
ステンレス
記号
払出
越える
ハイブリ
選定
濃縮
全部
スム
磁化
エラストマー
挟み
洗浄液
合体
搬出
ナビゲーション
104
強く
鉄筋
##ラメント
乗算
水酸基
性質
セキュリティ
ゴルフ
簡素
トレー
ただし
排紙
##金属
##扱い
シラン
クリップ
転移
バリ
薄い
離脱
土壌
底板
インデックス
着目
スロットル
##レンズ
正規
閲覧
ホーム
中断
##チレングリコール
主軸
方位
直後
母材
ストローク
最大値
##密度
パイロット
低圧
顕微鏡
貼着
公開
スクリュー
##おり
下層
##PS
仕上げ
44
巻取
多重化
##ゼン
隣り
熱伝導
蛋白
抗菌
決済
しめる
複数枚
前部
##タイム
RF
薬液
内視
鉄心
高密度
##エーテル
スルー
54
進入
警告
02
人工
経済
エピ
ストリップ
シリアル
##チオン
95
徐々
OF
分光
内視鏡
##化性
キャリッジ
点検
図れる
寄与
一括
リレー
時計
含め
##ポンプ
液中
待ち
送風機
規格
単純
##トン
給送
外れ
定量
肉厚
発色
スケジュール
スプール
アーク
及ぼ
基台
フラグ
発射
確定
鉛直
塗工
床面
送る
行程
書き込む
結晶化
##デン
動物
##モン
メニュー
注目
比例
追従
コンベヤ
リア
##シング
伝搬
ジョイント
kg
車速
収差
##SI
恐れ
##ルコ
昇圧
汎用
絶縁体
スレ
##ロキサン
励磁
回復
搬入
もた
印刷用
熱硬
熱硬化性
緊急
ジェ
積算
##ンドル
##レクト
歩留
価格
破断
クリ
##ランジャ
路面
操作性
向かう
砥石
##et
招く
三角
乳化
##キー
以降
バーコード
##バイ
ブラン
エミッタ
アダプタ
づけ
明る
リニア
指向
乗り
パスワード
##ヒド
無効
一面
外筒
先頭
ダウンロード
##is
##リブ
トラッキング
過剰
衛星
掃除
読取り
外形
ON
リアル
読み出さ
嵌め
煩雑
会員
##MOS
加水
伝動
##カルボン
非晶
##合わ
切換え
端側
芯材
支点
ズーム
減算
##サイクル
熱源
発光ダイオード
適応
潤滑剤
精製
##ディスク
##レンジ
捕捉
ゴミ
表層
変え
軌跡
自由度
無水
かご
退避
酸性
フラット
##es
アノ
##エチル
させる
簡略
##フロー
由来
##炭素
##ューズ
管状
プランジャ
一定時間
カチオン
##ペプチド
##カーボネート
サポート
##インタ
下限
録画
軽量化
メッシュ
保証
貼付
吹出
視野
沿う
清浄
ギア
側縁
最後
##掛け
##グラフィ
低速
##ッカ
稼働
負圧
顕著
球状
近似
行え
マイクロ波
ウレタン
シンク
規則
アンモニウム
機体
狭く
多量
遅れ
##ノイド
電機
加硫
中間層
解放
##ねじ
出入
##ーカル
ゼロ
リモコン
包含
白色
視覚
分け
取付ける
強固
標識
最適化
スケール
近年
断面積
交通
なくなり
紙幣
書込み
エマル
##it
カップリング
##ミック
ストッパー
カッター
昇温
支払
敷設
アクリレート
かかわら
横断
過去
##ノン
ハーネス
金額
断熱材
バラツキ
##ヒドロ
ppm
飛散
ポリイミド
Mo
##センス
ツール
装填
連絡
##書き
全く
水位
漏洩
サイト
前進
新しい
75
蒸発器
受像
##影響
集塵
近づ
化学的
体内
アニ
不安
変数
コンテナ
プロピレン
後退
浸透
フェライト
105
長期間
薄肉
悪影響
契約
除く
局部
##カム
##ウエ
シェル
クロム
切れ
##バス
例示
##上げる
経時
アノード
##ンパー
ターン
望ま
戻す
推進
音楽
悪い
熱電
折り返
インナー
事故
周壁
板厚
##ザー
サーバー
降下
ホログラム
水蒸
水蒸気
##as
軟化
フィラメント
繰り返す
隣り合う
噛み
##MA
発酵
確立
スキャナ
等しく
とおり
計時
荷電
##FT
仕切り
費用
凝固
以内
塩化ビニル
亘っ
リソース
下位
工業
物理的
##起こ
ポリペプチド
戻し
添付
ブーム
ペン
異なり
使用量
共用
発注
タイマ
ATM
##サート
##タービン
累積
前端
交換機
##下げ
流す
ロード
ラミ
グランド
##トリル
##ドライ
読み取っ
ポリビニル
スラグ
空き
トップ
リアルタイム
NOx
挙げる
##ッシャ
ステーション
リフト
##ナス
共重合
集計
65
目標値
硫黄
##取っ
リップ
通信網
106
硬貨
ガスタービン
核酸
##ディスプレイ
移動量
リサイクル
加わる
有害
縮合
乱数
180
##フィス
超電
超電導
内装
障害物
起立
穿孔
通る
ローカル
コントラ
共振器
日時
ビード
スピンドル
ミシン
行列
間欠
コントラスト
表皮
スムーズ
発する
##キャスト
##ウンド
胴部
磁力
正面
表裏
紙葉
換算
ばかり
優先度
証明
##機器
採取
空洞
プロファイル
ブロ
##ar
結ぶ
111
##ッシング
粘性
非晶質
血液
##キシャル
急激
吸蔵
ラジカル
限り
Li
##フタレート
ウィンド
回答
ポリカーボネート
##ろう
振り
明細
重なり
セクタ
個人情報
ジルコ
フッ化
軟質
##溶性
##ラップ
ホット
ムラ
通っ
パター
誘電率
測定値
柱状
難く
難しい
止さ
63
防振
局所
ボビン
チャンバー
不均
##ポリマー
活用
ストレ
充填材
難い
##エチレン
56
複数回
タン
吐出さ
##売機
覆わ
##ion
木材
多結晶
オリゴ
##スル
重複
戻り
反映
身体
線状
建設
リーダ
個所
テンプ
一度
工数
ファイバー
##たる
希土
大当
コート
ロープ
ポケット
##コー
円錐
Ar
##ージョン
気相
プレイ
流し
フォーム
##os
ブリッジ
絶対値
頂部
46
円柱
希土類
##ージェ
前駆
ポジ
リモート
アセンブリ
後述
薄型
近く
切り欠
動的
事業
浮遊
楕円
液面
サーマル
##パン
着し
トリガ
##ッキン
脱臭
##10
統合
エレクト
ワイ
均等
流動性
グリーン
開い
埋め込み
##ヤー
デザ
医薬
クラック
排除
##ダウン
##Hz
##シート
インサート
##イソシアネート
48
合致
開き
ハブ
LAN
住宅
最低
ホウ
一覧
省略
面内
当選
主要
集電
##ゴン
##FET
定期
口部
インスト
キャン
獲得
印刷物
##タノール
進退
耐食
##eb
しも
##ac
帳票
もう
##ベン
子機
高濃
順番
勢力
高濃度
クリア
メダル
散布
保温
##コート
希釈
ダンパ
ヒューズ
優先順
##レノイド
エピタ
光沢
比重
初期化
自転
スラスト
リフレ
マーカ
流速
有機物
フリー
AC
内方
ろう
Sn
フラッシュ
知見
##ビング
着座
ワックス
耐圧
違い
##デヒド
装備
受け付ける
アンモニア
不安定
地上
上げる
切替え
##販売機
自動販売機
カルボキシル
刺激
水槽
割れ
##ライメント
ソレノイド
既設
梱包
外輪
##スチレン
クロロ
冷蔵庫
鋼材
鋳型
副走
副走査
パッキン
##ジエン
##セント
言う
滞留
デザイン
ニップ
##アルキル
##ID
##バネ
タブ
優先順位
円板
伝播
CA
蛋白質
浮上
重心
カッタ
ラミネート
ズレ
同心
パターニング
##利用
工作
補修
##サーバ
火災
複写機
ホストコンピュータ
室温
入手
##バル
##ルファ
読出し
##サイド
供給量
一部分
補充
放電灯
貼り合わせ
筆記
産業
タスク
不十
不十分
たる
出現
フリップ
##ーゼ
##アルコール
詳述
常温
600
地震
ウインド
取出
過ぎ
パル
ドレン
##ーター
時間帯
物性
骨材
##イラ
リボン
72
台座
捕集
エンコーダ
分周
テレビジョン
当り
トレン
地下
組み付け
実験
脱落
ウィンドウ
柔軟性
エピタキシャル
71
生地
試薬
Zr
気流
簡素化
取り除
パン
兼用
##つけ
ルート
アライメント
グラフ
最小限
39
##テレ
遊星
車室
成形型
免震
呼出
##だけ
##AC
##ケース
のち
事前
##ーキング
通報
給油
##フィック
テンプレート
##プト
内筒
##なら
全長
オート
別途
スタック
内容物
嵌入
電子線
外力
双方向
過酸化
目的地
角形
別々
応用
穿設
OFF
従い
プラズマディスプレイ
##フェノール
溶湯
頂点
再利用
低級
僅か
集合体
シリンダー
撓み
アイド
##返し
コーナー
ペダル
デコード
トラン
脱着
リーク
円盤
図示
速やか
##シラン
タング
アース
度合い
ログ
具え
##フォーム
損なわ
スリップ
及ぼす
吸い
ナイ
浴室
ベアリング
複合体
##イング
##アミノ
鋼管
消耗
臨界
##制御
払い
知る
高度
##線形
##30
アス
ストライ
##品質
ベッド
モーター
プレー
解決手段
ベンゾ
帰還
前回
時間的
##ペン
カリウム
インダクタンス
蓄電池
PL
Web
耐食性
覆い
ハイブリッド
おこ
リク
歩行
##操作
チョ
ホス
不均一
外層
##ショ
書き換え
立ち上がり
##TC
ポリア
エント
凍結
ボス
溶出
強制的
##シャ
座席
ポリオール
85
フィラー
処置
収束
##渡し
擬似
バックライト
矯正
非線形
99
射さ
誤っ
見い
モー
マップ
特異
最高
##モンド
ガスケット
再開
懸濁
反り
厚く
##しめ
入っ
紫外
スタンド
メタクリル
高品質
耐摩
投光
着色剤
在庫
コレクタ
付設
64
パック
パーソ
的確
プロテ
投与
ピース
##シャル
##機関
視点
石英
エレクトロ
細孔
引き起こ
PD
OH
処理時間
##テロ
フロア
オリフィス
##ジル
ヒーター
熱量
m2
ティ
ほか
健康
多様
当て
ヒト
名称
現状
Nb
角部
工場
折り返し
引っ張
親機
##合わさ
ビア
ブロー
##リド
周辺部
##As
望ましく
送信先
##ステン
グリップ
##リュ
加湿
パーソナル
比し
明細書
##耗性
耐摩耗性
前側
最終的
振れ
関節
CCD
スチ
必須
繰り
周期的
焼き
翻訳
コンポ
130
##ちら
偏波
参加
ii
相違
黒鉛
ナノ
バッテリー
疑似
トレンチ
##レジスト
マウント
行なっ
TFT
##シロキサン
栽培
コバ
アルケ
ならびに
##el
##ing
スラブ
##レーティング
CVD
精密
アニオン
マスター
##メディア
##タジエン
入る
打設
できるだけ
可否
##ングル
検波
損なう
開く
ピニオン
可塑
ルール
ハードウェア
直鎖
意図
施錠
酸化剤
レンジ
便器
フォーク
キーボード
配し
支障
ごみ
増や
どちら
乳剤
とり
CR
##ウエア
ペプチド
##ゴリズム
センス
すぐ
コンプレ
カーテン
ブラック
折り畳み
透明性
ピット
プロピル
##クラ
付ける
マクロ
スパッタリング
覆っ
保留
以前
蓄電
内層
下げ
荷物
経済的
##スター
##ソコン
弁座
建築物
理解
##ソル
##ミネ
校正
アルゴリズム
調査
フライ
##条件
指紋
制振
書き込ま
定める
転がり
高速化
スプレー
金属板
断線
シクロヘ
代替
ダイヤモンド
開封
熱間
##ペラ
NH
過熱
囲ま
上下動
巻取り
アラ
LSI
体側
免疫
mg
中性
58
代わり
##om
染色
モーメント
景品
反射鏡
区別
##ッカー
定常
##PC
カプセル
移載
対処
可逆
GPS
タングステン
しまっ
楽曲
81
吸水
目地
させ
##キサイド
オーバ
Ta
支軸
##グリ
57
基本的
##ちに
地中
アルキレン
勝手
##ルカ
増減
上げ
##ブロック
難燃性
兼ね
含水
サスペ
椅子
各色
03
すぎる
併せ
食器
取り扱い
Ag
表わす
##ロッド
複製
デジタルカメラ
##結果
トリア
予想
マウス
階段
ダイヤル
##ナイト
カラム
重なる
疲労
エマルジョン
作業機
リム
マッチング
多段
斜面
ROM
ドープ
コバルト
右側
家庭
別個
ヘテロ
代え
活性炭
読み取ら
レーダ
冷凍機
照度
白金
##ニトリル
切り欠き
難しく
機種
##ed
共鳴
殆ど
占有
CF
##ージェント
ダイナ
001
バッグ
取り込み
##プロピル
充填剤
カルボニル
塵埃
##管理
錯体
少量
螺旋状
##ホル
需要
ガード
屋外
残基
250
##ーショ
除湿
##重ね
多角
112
要し
ハン
##ウェイ
平衡
車輌
部屋
かなり
隔て
予防
##ドア
##対称
カラ
測位
エージェント
##ーネ
挙動
##プレート
結束
共役
冗長
主に
湿式
うえ
下げる
縫製
データファイル
取り外す
中心線
液化
水系
剥が
間接
組み込ま
出す
フード
スプリ
無段
ジェット
寄り
既知
掃除機
パソコン
ペレット
合焦
47
##アクリレート
中和
トラップ
変圧
ボトル
Na
クレーン
ポリオキシ
ピクセル
直ちに
雨水
面倒
コンプレッサ
プライマー
パージ
いれ
単体
締め付け
公衆
表面波
プログラ
レコード
吸着剤
硬化剤
##バンド
行ない
メンバ
混在
事態
線形
##モノ
会社
因子
止水
プラテン
リーチ
所有
目視
受け取る
##期間
##RAM
如き
ヌクレオチド
除い
##磁性
マイクロコンピュータ
統計
コンピュータシステム
##id
プロジェクタ
組付け
送信機
塑性
骨格
ろ過
アシ
閉じる
避け
バケット
内圧
ジカルボン
気圧
流下
貼り付け
質問
アンチ
記入
組立て
##チオ
キャビネット
極力
##ンガン
##い合わせ
実情
製氷
テンション
##ポイント
スパイ
ラジアル
軸受け
減らす
稼動
木質
囲む
疾患
タイル
##レバー
粉粒
##ブラック
躯体
押し付け
まと
強調
##チェ
##作用
##ーナ
アクセル
##ては
##em
測距
見る
静止画
巻き付け
デコーダ
反応器
##テレフタレート
成さ
アルケニル
##マシン
##セン
砥粒
##キス
バイト
##ミナル
給気
半分
##ライド
##ニカム
マルチメディア
ウェル
##シリコン
想定
乳酸
##Si
慣性
載せ
ポインタ
##CO
押出し
挟ま
浮き
ダイス
逆転
スタート
ストレージ
秘密
実績
##フレーム
MPa
ダスト
行動
##EG
マン
噛合
ダンパー
サスペンション
占める
巻き取り
ハニカム
傾動
##レベル
重み付け
造粒
裏側
##80
##パスフィルタ
シーン
ショート
どうし
強磁性
フラップ
ペンタ
心線
##パターン
開け
ヘキサ
スルホ
歩留まり
貯水
細か
架台
通風
面状
マシン
滑らか
続い
ブッシュ
アジ
##ューティ
返信
最新
2000
タップ
硝酸
切り離
起こり
圧送
最小値
蒸留
スタン
##ードル
廃液
微分
##いては
残部
保有
停電
##ギュ
アプリケーショ
平版
##引き
口座
指向性
意匠
つき
連接
機能性
ダイナミック
細菌
着火
もち
##電流
絵柄
継ぎ
ターミナル
分解能
細長
凸状
多値
輻射
風量
余剰
マーキング
人間
片側
ファス
製剤
予熱
##ンジル
##us
グリコール
区域
方形
メカ
ハーフ
モニター
800
フリ
バンク
ホールド
多価
フォトレジスト
スレーブ
##アレイ
ボイラ
角速度
##ルー
還流
規模
イソシアネート
ショット
透かし
能動
マイナス
吸水性
通水
##シュ
かかり
企業
並行
炊飯
##メート
起こす
離れる
起こし
鏡面
図り
空気圧
報告
##スカ
##エンジン
##クロン
つれ
列車
##プロセッサ
土砂
管理者
吸音
衛生
カーボンブラック
##テーブル
##イオン
ポリエーテル
音量
前処理
合流
トレッド
##ルガ
チオ
品位
##使用
後輪
炭素繊維
RAM
##Ga
アイコン
##合っ
CM
##マン
107
付属
搬送波
##モルファ
スピン
テーパー
パーソナルコンピュータ
検体
電磁石
使っ
##モルファス
パルプ
##GA
疎水性
前段
##ジック
##プター
内輪
##ホイール
手前
下向き
数字
ホームページ
##20
##エスト
ポリスチレン
イメージデータ
シア
水晶
##リス
エコー
防止剤
フォント
ハンダ
遠隔操作
済む
仕切板
フルオロ
ホッパ
自分
##ッサージ
後段
DVD
ガン
アモルファス
バージョン
発音
剪断
後続
調光
##キュメント
明確
消火
手摺
運行
三角形
バイオ
ストライプ
担当
織物
伝導率
##ばし
ドキュメント
原理
##ニレン
##ケート
起こる
開弁
楽音
チルト
マンガン
##オライト
デューティ
微粉
図ら
動体
取り込む
##le
マッサージ
ジエン
一緒
受け取っ
普通
リクエスト
呼び出し
分圧
二酸化炭素
パッチ
メールアドレス
黒色
トイ
##入れる
妨げ
分別
割り当てる
射する
逆止
結露
培地
ピリ
##ーツ
PW
Bi
凹状
ポリシリコン
取出し
残っ
フロート
硫化
挟む
##ミル
##11
後者
切り込み
作る
##透明
##ュアル
修理
##クロロ
乗車
チュー
粒度
活物
未然
上限値
筒内
赤色
段階的
対面
牽引
異なら
基盤
##ax
アクリロ
メトキシ
冷却器
取外
ハードディスク
問い合わせ
鏡筒
締付
アウト
##60
##ージャ
正しく
持し
在す
邪魔
人物
弾性率
整形
幅広
ずらし
むら
引出し
キャリ
貯湯
仲介
出荷
持続
薬品
折れ
変圧器
通気性
下り
油脂
全周
レイヤ
伸張
解錠
ソル
無機質
コネクション
##リフト
交点
##ルール
クラスタ
過大
ドリル
メタン
IPアドレス
投写
グラフト
飛び
沸点
釣り
音源
綴じ
逆流
持する
JIS
ジルコニウム
断続
現像液
方向性
先立
##SD
あまり
利便
CT
##メタ
##リューム
##ーピング
変化率
ルーフ
##検索
ウエブ
純水
##イプ
前輪
##ポーラ
塩基性
沈殿
左側
集束
掻き
ルータ
還元剤
##II
##re
静電気
コイン
広範
吸収剤
##ンプログラム
##ーネント
ファイン
##レスト
余分
##RL
押し出し
時系
時系列
ジャッキ
結着
割り込み
##ルミネ
##マト
指数
##方形
199
ひいては
発見
そう
アプリケーションプログラム
##ルガノ
##ケーション
##ドライブ
包囲
色相
上り
温風
汚水
差圧
ダイア
吸湿
離隔
##ローラ
動翼
フロップ
ゼオライト
プッシュ
置い
高性
層状
若干
##DM
49
事業者
瞬時
出さ
##ヌクレオチド
##ボス
オープ
コンポーネント
高性能
焼鈍
逐次
印刷機
59
##イルス
##設定
さらなる
前提
コリ
MOSFET
##ユニット
##oc
水素化
##付き
##時刻
108
面取り
出し入れ
##メイン
金融
##フェイス
アイドル
##レント
中止
ボリューム
亀裂
埋め込ま
適度
FET
##センサ
通信機器
急速
事項
回し
要望
ポール
アウター
とく
加温
等価
着する
回さ
おら
転換
##サー
受け入れ
カテーテル
抑止
とくに
##シクロ
初期値
##CH
熱風
洗濯機
オプ
色調
毛髪
利便性
ひと
かける
##アセ
##動作
誤動作
後側
##ベルト
EG
##マスク
セッション
受注
コストダウン
一様
82
Au
ビニ
##プラ
炭化物
落ち
なくす
あら
対話
かかっ
摩擦力
事象
舗装
91
##ガラス
避ける
バースト
水洗
相補
行為
カーソル
数量
分極
製版
冷房
フラックス
##DD
線分
サン
冷間
盗難
出発
ポリビニルアルコール
Pb
商用
なか
アシスト
フラム
溶射
原子炉
ガラス繊維
##ロケット
##テーション
グリッド
録音
始め
##ーダー
自重
ホウ素
遅く
吊り下げ
気液
ミスト
パーティ
類似度
スカ
抗し
##詰まり
##ような
自車
どのような
速く
裁断
到着
更なる
あけ
66
直接的
ピクチャ
リヤ
大小
MR
##チューブ
呼ば
増殖
米国
復旧
ごとく
700
積み重ね
残し
知識
ハンガ
ドメイン
トラブル
便利
Ba
シャーシ
導か
##Cl
PWM
弱い
製法
入れる
見積
識別コード
ベンゼン
Cl
保険
ニードル
モルタル
シアン
##テックス
同定
可塑剤
遮断器
磨耗
能率
スプロケット
エントリ
あろう
ロジック
##40
配布
会議
上向き
定期的
同じく
電流源
取り囲
仕上
導管
ストレス
管理部
理論
発光体
##アー
低コスト化
トル
ミス
上段
隠蔽
下段
ベンジル
表わさ
頻繁
140
着用
92
アタ
##ファレン
滴下
ニトロ
可燃
##プリンタ
送出さ
ニュ
ざる
消費量
##オケ
作り
供給源
エレクトロルミネ
血管
多大
ゲージ
可視光
カラオケ
キュー
##ソン
ポリゴン
便座
再現性
ラップ
##タミン
##アルキレン
市販
プレーヤ
##ッティング
シース
レシ
通行
期間中
##じる
ストップ
きわ
車軸
リテ
ポリヌクレオチド
##ブチル
依存性
PH
置か
アスペ
##続き
やり
厚い
##ルーム
##リデン
005
C4
満たし
メーカ
スペーサー
タイマー
配分
放射状
活動
最近
正しい
排気管
ウインドウ
火炎
検索条件
##たす
トロ
調べ
貸出
押下
##ーゼル
ころ
##ロープ
##ter
バイポーラ
導線
署名
Ra
インストール
ml
庫内
安定的
識別番号
窪み
各部
変色
##ホールド
無水物
きわめて
URL
オンライン
ポスト
自動化
扁平
ホッパー
##トール
組み合わせる
##ージング
固定化
アルカリ性
EGR
足場
ストロボ
カテゴリ
非水
##材料
鍛造
インナ
青色
##かす
駆動輪
##メット
##状況
再送
##th
ミキサ
##ペット
メータ
早期
反発
視線
##ヒー
等化
ベーン
総合
ステム
板上
横断面
アシル
##um
##ーキ
ケトン
洗浄剤
ナイロン
大当たり
取扱
スロットマシン
概念
##GC
布帛
通す
ライニング
本数
現実
携帯用
受け取り
垂下
把手
抗原
重力
メモリー
要件
膨潤
##戻し
##パネル
クレジ
生理
奇数
##キソ
シグ
濡れ
パタン
##GB
モリブ
クーラ
ターンテーブル
前者
つながる
ゆえ
わたり
著作
##SP
##ごみ
羽根車
複雑化
注意
従う
組付
貴金属
トイレ
##スプリング
余裕
##AT
エキス
現れる
フローティング
モノクロ
もたらす
落と
シャワー
キャンセル
介護
今回
投票
臭気
労力
異種
##グラフィー
用いれ
眼鏡
##mp
スライス
証明書
クレジット
##ずか
アッ
長辺
過給
##ul
断片
続く
或は
ロータリー
PLL
液相
##イドロ
刃先
##機械
混合気
標的
促進剤
電位差
##il
コンバ
珪酸
渡っ
オープン
打撃
吹き出し
##セリン
はみ
##アルデヒド
土類
たら
冷気
割当
耐水性
##フラム
##ゲル
代表的
##メトキシ
##ヒドロキシ
成す
相手先
層厚
残渣
妨害
##OH
起き
耐性
先ず
ステッピング
促す
船舶
離型剤
後面
モリブデン
AD
抵抗器
加減
陳列
ジエ
放置
##マス
ビデオカメラ
色彩
評価方法
##規模
引き出さ
ミリ
As
##ys
塞ぐ
水流
相互作用
媒質
mol
医療用
成し
フィルタリング
合せ
フェルール
まとめ
##ッセンス
引出
快適
授受
外乱
ロータリ
保ち
クリアランス
もとづ
##ch
##つける
アスペクト
パーツ
架設
アラーム
ベクター
微細化
増やす
メカニ
書類
注射
ブランク
文章
レギュ
カール
精算
浄水
スピード
保た
##フラ
衣類
調理器
生ごみ
順位
電機子
ズームレンズ
##ゾル
板部
直下
軸芯
受圧
マッピング
予告
残る
省エ
##ミダ
AB
内外
奥行
エンボス
##送り
営業
##ゲート
総和
模擬
理想
増す
水路
作ら
回転角
##ig
利益
移植
建設機械
ビル
口金
工業的
ポット
肥料
曲がり
屋内
溶鋼
複素
増感
##70
ステア
誘起
止し
リフレッシュ
野菜
返送
乾式
量産
##ピラ
粘着性
球体
泳動
戻る
IV
マレイン
##ローズ
スパイラル
Pa
チャージ
図っ
色材
広がり
勿論
台形
ソフトウエア
##Al
##シジル
消臭
ステッピングモータ
エタノール
フォトマスク
現金
性状
##サイト
実効
緑色
一体型
消音
緩衝材
##取ら
口径
取る
##ラーゼ
##受け
郵便
##ーナル
石炭
ブタジエン
耐候
資材
関わら
日本
早く
危険性
##ROM
両立
##tr
地面
水道
セレクタ
EC
凹面
ロット
明度
光学式
定格
ペット
ディーゼル
紡糸
安定剤
広範囲
吹き付け
水栓
パラレル
太陽光
可溶性
飛行
メタノール
追跡
入浴
あたっ
弾力
一酸化
住所
矢印
法線
銅箔
##ファイ
原水
アウタ
##TO
可溶
グロ
目詰まり
取り込ん
回生
##スポ
##TP
劣る
合わせる
期間内
寄生
暗証
関わる
立て
抜け止め
育成
パウ
折畳
インクジェットプリンタ
送給
閉止
いくつ
ガスバ
ステータス
外枠
外縁
栄養
駐車場
ブリ
視覚的
##IN
内包
縫い
視聴者
##解除
満たさ
LCD
発泡剤
ハンガー
切り出し
##テート
カーブ
呈する
踏み
##料金
水質
圧延機
シアノ
加振
ダメージ
概略
取り除く
フェース
塩酸
乗客
わずか
続ける
述べる
不利
ドロ
取扱い
シリサイド
遠心力
73
クリーン
ロウ
原点
層内
働き
引き起こす
指針
均質
##エロー
働く
有機酸
Pt
転写紙
ブラウ
微量
La
##レクトリ
レセ
##RP
##アク
取外し
特有
低周波
放射性
読み込み
到来
##暖房
気孔
外管
助剤
組み込ん
##ルダ
中立
グロー
シュート
ファスナー
鉄道
発せ
マニホールド
##通信
自転車
カプラ
##ナリ
遊離
FM
ユニ
自走
上縁
Sr
向く
要請
##シー
逃げ
まわり
印画
カルボキシ
澱粉
電力量
##シャフト
##クラブ
伸びる
##作業
カウンター
##12
アニール
##EE
防音
都度
偏平
判明
ゴルフクラブ
休止
コラム
有価
分間
掘進
##プレグ
物理量
##te
水量
差異
不可避
消失
##ンジオール
消費者
耐衝
耐衝撃
耐衝撃性
乱れ
##から
##ナノ
ブラシレス
加わっ
次第
##回る
点滅
##トム
情報検索
##画質
時間差
セクション
取り込ま
取り出さ
おこなう
有る
航空
Me
##クスチャ
渦巻
##テトラ
割当て
マーカー
光通信
込み
マージ
遊戯
含量
滅菌
付随
基準面
承認
##EM
##違い
向い
リテーナ
109
##ガジン
Hz
極端
パラジウム
サーチ
ロック解除
##ミッション
差込
アイソ
バインダ
##スティ
発進
水銀
トリミング
プリプレグ
浸入
洗剤
役割
本人
アタッチ
##リンク
耐候性
##ゴミ
フーリ
ナフタ
##反射
突き合わせ
##内容
ショック
sec
具体例
##SB
次回
##ペンタ
リッチ
離散
乾燥機
医用
PR
イオン化
光重合
権利
フル
蛇行
過度
緻密
水和
ウォール
粗面
プル
励振
用語
車線
耐火物
##リット
リザ
埋め込む
つぎ
連携
##メチレン
全域
エチレングリコール
水滴
廃水
高画質
サージ
当たっ
速い
タイトル
付さ
インターフェイス
##チャージ
基い
マスキング
##パイプ
最短
吐水
##シス
外線
少し
ライブラ
円環
ボトム
ガリウム
洗い
グルコ
見え
フーリエ
よら
ジャム
ビーズ
ダブル
テクスチャ
無し
荷台
##ギア
緊張
採る
グルーブ
##ミスタ
遅い
鋼製
cm3
アタッチメント
日付
##メモリ
ポリブ
##ation
交差点
##込め
見いだし
続け
ポリエチレンテレフタレート
コロイド
防護
外れる
必要性
業者
コミュ
160
##純度
下水
高純度
以後
組み込む
直進
##価格
周回
手術
##ドル
モデム
オプション
ディレクトリ
##ent
有線
素環
インパ
穀粒
器用
操縦
##フタル
##ステリ
プログラマ
多少
コモン
散水
成功
運転中
事実
##ラチン
取込
マガジン
賞球
X1
海水
表面積
防ぎ
ドライバー
生ゴミ
イエロー
しかる
解体
##ヘッド
受取
バッチ
導波管
グリル
##ークス
水酸化物
井戸
CO2
弱く
被験
スライダー
走行中
強力
mm2
固形物
引き出す
ジア
不快
個体
配電
##かけ
修復
##Pa
床材
実用的
正弦
当量
瞬間
熟練
##椅子
光波
OR
食材
##タール
尿素
コール
エレクトロルミネッセンス
サーミスタ
修飾
レギュレータ
TC
ヘリ
AV
チケット
隔離
コーナ
HC
ライセンス
所謂
刺繍
入金
いか
車椅子
スナ
音波
ウォーム
##感度
高感度
##ベット
家具
終点
同調
遮音
効率化
細長い
クレ
置き換え
ピストンロッド
##カプ
98
##クサ
74
脱離
沈降
金物
##持ち
横切
##ルトリ
排熱
ラテックス
取り扱
原動
##ファルト
##ープット
細線
脱硫
パイル
ジャケット
近づく
高級
##ーフ
##ラミン
分断
種子
##IP
##カルボ
良否
断層
孔径
スクリュ
グリース
##ずみ
ディスクドライブ
SA
全体的
消灯
##フィルム
引っ張り
##オキシン
解読
飲食
TV
不連
不連続
バリウム
実測
工夫
シングル
煩わ
繰り出し
スループット
レチ
ケイ酸
大当り
##落ち
##回り
水圧
犠牲
障壁
切換える
ボンド
固溶
ラジエータ
代行
伝票
ビスフェノール
合う
結線
マイク
申請
情報量
サム
ポジション
ジオ
ウエイト
持ち上げ
無理
コミュニ
発熱量
刃物
所要時間
##グル
##LC
EP
転倒
大部
シートベルト
113
ロス
不必
不必要
返却
93
伝える
オキサイド
FA
ダイアフラム
追尾
##ザクション
##ネーブル
201
##ut
吸熱
一酸化炭素
アンダー
粘土
##マイ
スズ
せん
短辺
オーバーフロー
ダイオキシン
##フォン
母線
縦横
正規化
ウイルス
スプリッタ
石油
仕分け
なくし
ジフェニル
##シアニン
##防止
先立っ
孔版
プログラマブル
##ワイト
リニアモータ
穴部
アスファルト
撚り
##カプセル
在し
##ーディング
従え
210
##94
見える
目盛
オリゴマー
操業
SiC
組合わせ
使わ
支え
ローディング
代金
埋込
講じ
##リーフ
スタッド
スイング
原紙
水平面
繰返し
メチレン
路上
爆発
##テム
失敗
Pd
標本
##ag
水面
増え
考える
嗜好
ヒスト
##電力
並ん
PO
トーチ
粉塵
ヒートポンプ
表記
繊維状
トランザクション
フィーダ
オルガノ
保っ
広がる
ブラウザ
かしめ
時分
臨む
透視
等間
等間隔
##塗り
##SC
350
ヒドロキシル
子局
間仕
##プレン
##ランブル
水温
色差
##90
典型
存する
精細
フォトダイオード
密接
正当
感応
配備
##ろん
相手側
重金属
ビアホール
##デー
マイクロプロセッサ
結果的
非同
非同期
ゲートウェイ
漢字
於け
##000
##og
中子
フタ
展示
バルク
違和
121
##マップ
##捨て
違和感
解釈
多色
差し込み
振り分け
77
CMOS
MPEG
長寿
XY
##発電
湯水
感染
ネック
重要度
迂回
##ドウ
小形
飛翔
多角形
電装
タンタル
カレン
難燃剤
ガタ
湿潤
イミド
Gl
色光
台数
配位
編成
ポリオキシエチレン
せれ
変わる
##クトン
長方形
格段
アイテム
抗菌性
台紙
ブレン
カーボンナノ
マイクロカプセル
マルチキャスト
##ステアリング
アキュ
決める
Ph
##一致
認め
雌ねじ
長寿命
無人
ベント
ガスセンサ
##nd
テン
##落と
複屈
複屈折
MHz
インジェクタ
##打ち
ハイドロ
ドーピング
##カン
DB
PV
収率
脈動
インテ
ずれる
せしめ
正孔
ホワイト
##エリア
ガスバリア
プラット
担当者
購入者
行く
コークス
##OC
04
接線
##イダル
たとえ
アクリロニトリル
測光
##ファイト
ヘル
逃が
手書き
##キャリア
スポンジ
張り出し
奥行き
締付け
67
反復
TiO
CAD
シュー
自ら
##番組
称する
パワーステアリング
使う
多面
欠損
ウエーハ
受容体
防錆
吸引力
神経
ピロ
ワイパ
扱う
サンド
トレース
ポイン
不一致
傾い
ワイヤレス
インフ
デッキ
min
インジウム
非対称
楽し
幾何
網状
##フィールド
処分
排他
ターボ
せん断
68
##ランプ
シーリング
粒界
行なえる
バルーン
コンセント
ヨウ
受け渡し
##ばね
脂環
##ホス
ヨー
アゾ
ネガ
Pro
##ガー
変異
不適
産生
生活
無視
融合
焼却炉
##ンバー
芯線
局面
棚板
口側
##ビア
外し
##od
決まる
##パック
クロマト
取り囲む
持さ
押し込み
増し
食い
引張り
従属
OS
養生
錠剤
アルデヒド
レチクル
鉱物
広帯
広帯域
##13
建材
呼吸
放送番組
コレ
レーザダイオード
キャリヤ
室外機
##op
偶数
雄ねじ
##ur
高まる
動弁
PN
歩留り
ジイソシアネート
板バネ
##ST
スプライン
ライナー
レース
テストパターン
歯科
トリメチル
トラフィック
撥水性
構造化
##ラック
加算器
品種
RGB
進む
83
風呂
たわ
純度
マイクロホン
UV
メタクリレート
酸化防止
酸化防止剤
アセチル
テキストデータ
流量計
出る
アド
刃部
車内
できれ
伸縮性
##クチル
移動距離
##ライズ
##はり
ピラー
当然
##ドライバ
マニュアル
##イロ
銀塩
##AG
次式
VC
##コント
添加物
増設
市場
114
板ばね
撥水
ステレオ
オンオフ
車幅
当たる
輻輳
立ち上げ
SC
大部分
表紙
##切れ
典型的
未だ
##理的
組み立てる
220
融解
イル
可搬
やはり
計器
配達
##max
送付
過渡
所在
衣服
コロナ
協働
隆起
もちろん
鮮明
相殺
##ロシアニン
06
遠い
ビットマップ
適する
メルカ
起伏
汎用性
つく
ヒストグラム
Ge
コーン
##am
##15
診療
ジエチル
##ラウ
優先的
床下
各層
受信器
##メン
##ND
仕事
##ャー
支える
Re
呼ぶ
FI
スクリーニング
消化
関与
##立つ
プリチャージ
ステー
##ばす
楽器
プリペ
押す
キャピラ
人手
NA
##ファレンス
推力
沸騰
シロキサン
結体
Tg
形成体
面材
対角
202
すべり
Sb
告知
育苗
##メルト
化粧品
権限
揃え
耐え
受信者
石膏
##ロア
胴体
at
深い
打ち抜き
プロパ
低域
引き上げ
DRAM
枠材
切り替
抑圧
リターン
開閉器
吐出し
忘れ
ペーパー
##張力
隅部
サーボモータ
原版
チタ
親和
##ミラー
売上
スペクト
脱気
興趣
連鎖
供する
##デシル
挿さ
キット
900
##上がる
付し
リーン
エレベーター
##ナーゼ
つま
オペレーティング
拘わら
可燃性
通信路
ベースバンド
詰め
送電
単層
##ボックス
フォルダ
コンパレータ
NC
建造
モール
離反
94
サッシ
##組み
節約
噴流
防食
深度
透析
リフロー
SOI
ほう
言え
不用
未使用
膨張率
すぐれ
マイコン
ヘッダー
##基準
Tr
溶性
セン
カーボネート
450
空孔
ステープ
深く
リザーバ
車間
ホットメルト
##らさ
分離器
限度
GaAs
84
気密性
ピンホール
法面
試み
引き抜
ブラスト
SP
##バース
付帯
##ow
##ライザ
弁部
マージン
基質
アルキ
##アンプ
詰まり
あらゆる
刈取
##ーミング
##マネ
##iv
支払い
不溶性
増える
アレー
導き
耐震
選局
ライタ
送り出し
ST
##ンプル
有り
##ンドレル
ポリイソシアネート
留め
血圧
ヒートパイプ
LD
帯域幅
クリック
マネ
##25
増粘
捕獲
球形
76
##むつ
並ぶ
鉄骨
ねじれ
盛り
プロトン
##14
メモリセルアレイ
始端
##エステル
ひずみ
スカート
スルホニル
パーティクル
特典
遠隔制御
ポインティング
電解槽
共存
ビタミン
度合
##関係
送り出す
MIS
発生源
サブフィールド
超伝導
アセト
##リジン
ローパスフィルタ
トリフルオロ
プラン
きれ
プリペイド
##ベンゼン
欠落
出入り
作業員
マンドレル
走査型
##ボルト
行き
クロスト
教示
受け入れる
台上
取っ
廃材
マゼ
つけ
トルエン
原液
ろう付け
投資
ブレンド
##しめる
半透明
##輪車
膨張弁
SD
航空機
起点
信頼度
油性
払い出し
形鋼
##バイダ
コイルスプリング
プレイヤ
構内
欠け
一回
掛かる
単離
キャリブ
せしめる
バスバー
わたる
起電力
##トロン
エンコード
積極
チューナ
DMA
後処理
AP
##栄え
防犯
ジルコニア
ライブラリ
溜まり
あげ
乗降
脱穀
NR
或る
言い
ブース
パリティ
OC
##クシャ
##ベンゾ
金融機関
一定量
筆記具
線幅
話者
安息
推測
エンドレス
ゼラチン
##TT
化成
##パッド
##下がり
導入部
形質
消耗品
網目
##リーナ
緯糸
貯溜
嫌気
玩具
##ass
切り離し
受動
対象者
ルーティング
ダイシング
##リドン
遊技場
開設
体用
##ミット
シリコーンゴム
見栄え
サーモ
具える
生育
自然数
スティ
122
リッド
面板
in
濾材
電子銃
##リート
ます
##フル
クロストーク
スケジュ
##ステナイト
##ヒック
炉内
高調
メタデータ
##分ける
コース
購買
掲示
##グラフ
115
加熱炉
##タンク
GaN
プリンター
##フィド
##ad
##ジー
網点
キレート
キャリブレーション
バーナー
マンホール
##ッシャー
増強
グラフィック
高調波
重なっ
##ert
スペクトラム
##損失
外用
後進
探傷
圧力損失
づつ
運転席
##フルオロエチレン
リスク
トラヒック
もとづい
ドーパ
異形
MgO
ポリエチレングリコール
高炉
広げる
リフレクタ
アブ
収穫
スチール
原動機
細書
ノブ
ビニリデン
大規模
##ータル
押し付ける
CaO
訓練
同報
##16
##テープ
調波
198
##ot
アンケート
積極的
アリル
コンテ
オーステナイト
ドリフト
##上り
濃淡
緑化
揺れ
不良品
トランスファ
プロペラ
残さ
経験
オクタ
##プレクサ
脂質
酵母
果たす
緩やか
##ノキシ
##75
##ap
切除
本明
メンバー
引き込み
居住
AF
引っ掛
アッセ
ジアミン
掲載
ホルム
懸濁液
##オブ
##チュア
推奨
マゼンタ
申込
膨大
ジオール
##TV
造形
係わり
操向
カルバ
##チップ
ピボット
巡回
バレル
動く
##わけ
メラミン
自立
CRT
##エトキシ
単色
スクランブル
燃費
概ね
所有者
小孔
磁器
トーン
クローラ
取り扱う
##フォーカス
##アクセス
ウエル
作業時間
ロア
暗証番号
Th
長軸
減らし
膜中
ボイド
洗濯物
灯具
好み
遠赤
膨ら
ポリフェ
建造物
倒れ
##ポジ
探針
とりわけ
モジュ
空間的
エマルション
ストック
##スイッチ
シグナル
解凍
##ER
##ントラ
感じ
インチ
使い捨て
##会社
##取引
CN
プロテクタ
放送局
##ブレー
アラル
##ポン
PP
ブラシレスモータ
##pl
透水性
96
08
アクセスポイント
当初
全量
重り
PHS
曝気
##処理装置
中央処理装置
全反射
模型
感覚
RNA
ライナ
サムネ
巻き取る
貢献
動かす
グリセリン
薄層
不動
ランニング
引戸
アーマ
##18
クランクシャ
水冷
クランクシャフト
##カバー
連なる
本質
##コイル
ドーパント
振動数
カーボンナノチューブ
折曲げ
防汚
倉庫
起こさ
送水
ホーン
##24
電圧源
##寄せ
##って
プリフォーム
吹出し
電子レンジ
形成層
経糸
デッド
押し当て
合波
カレント
##温度
##金額
合っ
もし
圧縮率
集約
乳化剤
##インター
##pos
香酸
##でに
設定方法
ボイス
顆粒
プロパン
外端
##cc
開始時刻
受入
パーフルオロ
置く
オキシド
##ポリシロキサン
移相
肩部
始点
妨げる
レンチ
##サル
耐力
##ドラ
障子
送出し
懸架
稜線
消毒
彩度
遮水
グレー
臭素
すでに
香料
極大
著作権
フタル
##ペダル
水切り
クー
97
##バイル
伝送速度
剥がれ
Ce
組換え
プレキャスト
スチル
モバイル
基布
照会
##UT
仕切り板
懸念
細い
保冷
冷熱
やや
適性
ミクロン
##ニー
コイルバネ
紹介
周速
ピア
スレッド
蛇腹
RFID
塩類
水密
多糖
拠点
期限
吸光
キシ
アキュム
図れ
名前
550
引き抜き
##機能
ISD
カタ
薬物
大変
電球
板面
全開
側鎖
保水
転位
割込み
##ビット
PS
無くす
##ブレーキ
メルト
スタータ
補機
条件式
シェーディング
正弦波
被せ
ガンマ
##ソー
86
組み込み
ランク
表面張力
##上がっ
床板
USB
データバス
##たれ
ナフタレン
仮止め
二輪車
意識
有限
挿し
##23
分散型
旅行
凹み
アラルキル
##経路
貼り付ける
##ネルギー
スラッジ
##95
感知器
夜間
ワンタ
スコア
セルフ
##TF
FAX
防塵
##画面
ビュー
論理和
発散
算定
有料
不完
##効果
ラスタ
他面
切替える
カムシャフト
入り込む
ゾル
飛躍
##ートップ
崩壊
グリシジル
リファレンス
漂白
参加者
経済性
##シリンダ
上がり
オーバーラップ
##もたれ
風向
FRP
所持
進み
PB
資料
コネクター
プール
背もたれ
コーヒー
##TR
たわみ
可及
可及的
関心
専門
センシング
##ヘキシル
手作業
不完全
会話
除算
分流
交信
渋滞
医薬品
ローター
ダイレクト
##チロール
ノッチ
##ティキュ
ディーゼルエンジン
##ミダゾール
蓄冷
##ウント
普及
MD
根元
脱塩
##メーション
原色
トリガー
跳ね
ノック
アルコキシド
イオ
貨幣
超硬
キートップ
オリジ
仕切る
##製品
##方体
河川
##単位
書籍
焼入れ
##プログラム
向っ
洗面
表側
ISDN
イソプロピル
##ルメント
偽造
柔らか
飛躍的
##ce
かく
送液
抑制剤
被験者
シーブ
囲繞
ポテン
トランスポート
ラチェ
いえ
はみ出し
失わ
##IM
除外
間引き
クリーム
受付け
切込み
冷水
数十
透磁
##弾性
現用
エアコン
要約
##ans
トリム
カーカス
混和
ホルムアルデヒド
アパー
##空間
消滅
如何
高域
買い
極板
ラチェット
仮想空間
仮定
親和性
##リッド
ブロッキング
処方
##ーリー
画定
作業車
##ソール
##レード
ブラインド
出湯
##EP
総量
##オキサイド
釣糸
追い
昇華
為さ
本質的
##デーション
##ューサ
湿気
ツリー
溜め
リリーフ
みな
内線
過ぎる
変質
靭性
オーガ
将来
調味
M2
TA
ベローズ
吸い込み
逸脱
アキュムレータ
繰り返さ
垂れ
チャート
イメージング
保全
差分値
すす
機密
削り
ジャイロ
##インタフェース
オリジナル
##署名
初期設定
螺子
##スプレー
表わし
##ess
フット
ナンバー
遂行
ストラップ
虞れ
Ch
外殻
170
##RNA
組み合わさ
状態量
##消し
不便
加熱器
熱延
バナ
##とり
グラフィ
##ip
受電
除霜
口腔
##ピロ
プレーン
受領
ジクロロ
地球
整理
##ストロ
入札
向かい
わけ
度数
飼料
舵角
はめ
メルカプト
換言
縦枠
通信機
物件
##MP
感温
家電
親局
現れ
かから
##表示
油分
ショー
供与
線条
物流
ドラ
WW
半球
125
上蓋
##IC
玄関
##ソリン
プロバイダ
ラウ
スーパー
下枠
固定的
##イック
テール
風速
ストランド
リベット
打球
セレクト
落とし
##ょう
複層
斯かる
デバッグ
##らい
##FC
シャドウ
第一
高低
OFDM
##シリル
前縁
アルゴン
アパーチャ
横切る
リアクトル
##メトリ
競技
受像機
ドーム
パチンコ玉
片方
87
##ジェクション
広角
##符号
##ティキュレート
##ティック
床暖房
筺体
酸化鉄
コンバイン
突入
噛み合い
沿わ
##折り
縦軸
78
軽く
ホモ
溶け
解離
最大限
ハウス
処理速度
##プル
サムネイル
窓枠
PDP
細かい
amp
排気口
##キン
##ンピング
特長
連係
鋳物
練習
メソ
##ナリオ
代理
下縁
##SO
研磨材
気象
カスタ
##ネレータ
なれ
116
異性
縦型
Pr
触れ
溶存
NMOS
荷役
対峙
アクセ
##くり
アングル
不活
##ネットワーク
##そう
##ウス
フタロシアニン
配慮
オペレーティングシステム
離し
PET
船体
進捗
リガ
ドレ
アンチモン
炉心
対流
ガソリン
共同
無関係
外す
経路情報
オーダー
定形
再使用
ワン
進め
替え
興味
ウェイト
イネーブル
公転
雌型
カレンダー
塗り
コミュニケーション
同図
美観
ナフ
まだ
紙製
土台
射出さ
エキシ
とら
蓄え
子供
##コンク
運営
封口
仮想的
iii
耕耘
資産
##低減
コスト低減
識別符号
ステープル
巻か
蝶番
##分解
電気分解
化粧板
WWW
シナリオ
エッチ
独自
おむつ
トランスミッション
像面
アレル
テル
##ラウド
漏出
PA
ゲルマ
急冷
工作物
座面
##早く
外箱
即座
円状
##フェート
公平
チョーク
仮設
がた
握り
座屈
##In
ワイパー
##17
VP
ビン
つまみ
##化学
紙送り
ステアリングホイール
アーチ
吸込み
農薬
ファインダ
コル
##ハブ
ピンチ
##ケータ
力学
盤面
粒状
探知
振込
直結
##メタン
機会
ジヒドロキシ
ルテ
切断面
硫酸塩
##タイト
問わ
ミキサー
ドロップ
排泄
組み付ける
一列
災害
持ち運
##デバイス
スタンプ
シュラウド
ハンドリング
較正
##ab
##つく
細く
ZnO
定まる
偏光子
ヒステリ
理想的
LC
シーム
手続き
##コンクリート
心配
風味
07
四角
ヒステリシス
具合
送り込む
近づける
そな
省エネルギー
目立
施療
##もり
付い
残高
分注
吹き付ける
##26
補完
プロピレングリコール
LP
広げ
##FO
融液
融雪
ポリアクリル
##ソフト
フェンス
逆向き
キュ
哺乳
キャプ
横軸
ゲルマニウム
不用意
##エーション
##99
ランナー
ウェット
直立
スケジューリング
自局
罫線
多種
フライホイール
視差
シクロヘキシル
##フェン
PE
見い出し
メーカー
透磁率
シーク
1200
アクション
入場
原盤
コリメータ
搭乗
厳密
##パケット
排気弁
ノル
蛍光灯
インペラ
##ゴット
外光
宿主
拒否
ソート
可変長
##応力
熱応力
噛み合う
パイプライン
オーダ
オキサ
鋭角
AS
押さえる
ディス
正負
Ru
無限
加飾
1500
一又
##リスタ
シフトレバー
##MR
基底
単板
風力
##ーラー
止める
著しい
エキシマ
##ンクション
不透明
低価格
##ロス
##Ti
ナイフ
線量
漸次
アンド
##出る
オペレーション
接合体
230
スター
kgf
不燃
##浄機
登録情報
所属
##シェ
スキュー
##ネン
ダイナミックレンジ
反面
画角
最下
売買
##回っ
##ブロ
平面的
ミクロ
リガンド
##35
グラファイト
##フロ
生起
TS
立上り
##28
はじめ
指す
##メトキシシラン
挟み込む
誘発
燐酸
電子データ
統一
凸面
板金
移動経路
圧迫
##渡さ
シード
受話
##ンダー
##ツボ
プログラミング
変態
##リック
測量
ブレーキペダル
悪臭
気化器
環式
ニトリル
レスポ
始める
防火
不溶
折畳み
apos
単価
クレジットカード
対数
読取る
だり
火花
相応
しっ
高熱
植生
インゴット
ITO
発話
事例
いい
塩素化
熱的
わかる
COO
カス
ジェネレータ
冷蔵室
開か
##ろし
ワンタッチ
語句
Sc
機微
##ニール
ジッタ
腫瘍
イグ
360
自律
挾持
滑り止め
料理
親水
クラウン
断続的
復水
面する
##ットル
3000
役物
シミュレータ
事務
PM
CL
早い
光子
##ニック
##モイル
##タイヤ
家庭用
スナップ
##張り
発し
戻さ
縫合
インフレータ
周知
教育
パウダー
背圧
ダイバー
白黒
押し込む
フルカ
FP
同種
##TA
MF
防湿
透湿
##バランス
##ジエ
No
グローバル
##コントロール
##ンサー
撤去
等速
金網
##開き
##eu
主鎖
##アンテナ
正逆
ABS
ラジオ
ルテニウム
結び
トーク
##ネーション
##ルド
##ダーゼ
SN
##レア
ハッシュ
レーン
88
POS
いつ
化学式
渦電流
##ネジ
##ect
なくなっ
パート
##項目
思わ
色度
コポリマー
波面
エトキシ
食器洗
数列
遠ざ
歩行者
サブフレーム
パティキュレート
割り付け
分かる
##ロイ
##ーラル
##ハク
インストルメント
サイリスタ
減容
ランニングコスト
読み書き
読み込む
mass
残す
tert
通じる
読み込ん
##ショナ
幾何学
訪問
ペア
クエン
良品
エバ
MC
アンカーボルト
ポーリング
クーポン
漏水
分枝
Webページ
招い
微少
カプラー
##クチャ
関係式
吹き出す
レスポンス
ベタ
電文
ノート
##回転
レンタル
##メートル
準拠
収納箱
##シド
配光
of
実用化
面圧
電池パック
カシ
概要
呼出し
面一
サブシステム
覆工
焼却灰
浅い
002
体重
方程
可読
横幅
流水
起こら
サイクロン
5000
##バルブ
スパン
折返し
##クチン
ファーム
##ロブ
必然
##リーズ
定型
69
##ルオキシ
切れ目
熱線
##抜け
臨ま
外用剤
防除
##ギン
メリット
セリウム
炊飯器
せよう
図中
##NH
スピーカー
重なり合う
キノ
ヘリウム
磁歪
動脈
スクラ
グロメット
幾つ
カバ
出没
押し出さ
受皿
難点
##サン
放散
##アゾ
編み
ショーケース
充電器
温熱
ディザ
整備
包装材
空中
傾け
##キノン
脱脂
陽イオン
体系
兼ねる
しわ
レシーバ
拭き
供さ
レセプター
##ルテ
競合
無害
ジャック
酸類
穀物
トリメ
省く
石灰
シリル
天面
ピリジン
微妙
ジャーナル
##メタクリレート
##if
境界線
細かく
##yl
##ボタン
スキン
わかっ
##27
変成
不快感
##道路
クリープ
パラフィン
##モニウム
鍵盤
交叉
フラン
エアゾール
##目的
外皮
##らぎ
すく
ロッカー
つなぎ
最外
##曲げる
##34
##パラ
いかなる
##ct
##マネー
広域
据え
##ase
逆回転
射し
dB
一定期間
集め
ラム
電熱
克服
トータル
##モーター
電子マネー
##クリロ
原画
進ん
給湯器
奥側
書き換える
ジグ
一意
路側
##ニス
攻撃
ウォータ
##フェノン
ニオブ
偏り
払拭
##OP
ハンマー
##ネラル
オクチル
押し出す
区切り
塩素酸
##車両
圃場
割込
貸し
プリペイドカード
外囲
問合せ
紫外光
リットル
IF
蓄圧
##まで
主な
インジ
リミット
ウェブページ
接眼
##停止
拘ら
##ゼーション
無くなる
立ち下がり
DS
リッジ
ティース
押し上げ
##ir
ラビング
作物
送り出さ
m3
ヨウ素
出庫
##ビュー
ポリフェニレン
高所
方程式
書換
植付
生物学
インスタ
PMOS
##フター
あと
ボデー
仕上がり
##キシング
CS
削孔
差込み
停車
##19
阻害剤
紛失
相乗
コンソール
CDMA
##変調
ステント
##ゼンス
弁開
ジャンプ
選択肢
ヘリカル
電離
保持力
pn
##マリン
近距離
必然的
れれ
##ーティング
超過
メカニズム
触れる
ビスマス
##モード
##フォーマ
ミネラル
kHz
TD
折れ曲
Ir
穿刺
鉄道車両
メカニカル
一時停止
バラン
スキージ
ガー
防水性
反発力
塊状
入り込ん
##つい
弾力性
ニューラル
隣合う
抄紙
乗算器
インターホン
封筒
土木
作業中
所期
バナジウム
##ell
側辺
制作
立体的
棒材
廻り
整流子
大豆
間仕切り
##回し
発声
##引い
ピント
乗じ
管用
##レール
挟み込み
エバポ
部門
増圧
構造的
未知
接触角
TCP
少く
ポリテトラ
##Ni
体液
##38
FPC
増量
分担
##対象
リミッタ
断面図
##レイミド
改変
置き換える
##EC
ハードコート
変わっ
##ボラック
伝え
モニタリング
調整器
突き当て
粘弾性
とれ
パッシ
mRNA
##レース
##割れ
病院
乗場
黄色
溶断
繰出
カシメ
極細
加重
等方
アッパー
視界
ヘッドレスト
資金
メールサーバ
ケーキ
液性
常圧
希望者
紙面
基等
粗大
レリーズ
本文
310
調べる
蓄光
改造
##渡す
原材料
##振り
203
浮力
探査
焼付
併設
VI
##コープ
定量的
ルツボ
参考
##アンモニウム
溶解度
RA
空冷
リアクタ
##マーク
取水
正転
不明
どこ
精錬
##ダンス
密閉型
繋ぎ
回り止め
##ギー
降伏
移し
ディスプレー
010
ひび
##ia
アセトン
粒子線
そなえ
開ける
##環境
##産物
同相
横架
欠ける
明るい
排他的
飾り
ディスペ
溜まっ
##ナート
##住宅
実体
204
##ナイ
##じり
耐える
弛み
##ステア
規定値
##漏れ
果実
スチーム
##クテ
製本
##ギャップ
片持ち
##下げる
##65
ガイドピン
Rh
木製
残余
中性子
静的
緩み
たび
トラクタ
光体
塩化物
互換
波状
##デューサ
ソリッド
コメント
意思
Nd
ルーム
総数
リンス
筒形
調湿
##ペア
ペリ
貨物
農業
有さ
記す
マスト
##能率
作業能率
随時
スタンパ
ダイバーシ
管軸
選出
突き出し
ニーズ
サブキャリア
ミキシング
書式
シト
スクリプト
走行距離
吸音材
閃光
##ジット
ノン
Hf
グルコース
再設定
ユーザインタフェース
デスク
炎症
分かっ
デュアル
カタログ
デタ
##ダリング
##Fe
##タンス
マグネトロン
直上
フェーズ
マザー
キャニ
フラグメント
プレイヤー
防災
取り入れ
##容量
##スカス
ホスホ
ブランチ
擁壁
##DNA
リソグラフィ
規則的
上書き
介する
ルーチン
フェノキシ
蓄熱槽
留守
##ay
銀行
脈波
素早く
トリアゾール
工期
##ガム
降圧
カロ
HD
##カルボニル
プロモーター
差し込ま
折り目
Tm
ランス
##さび
アンバランス
##スルホ
次数
ノボラック
同一性
カーペット
車外
パーキング
販売者
トークン
Te
TE
不整
ヒドラ
##イム
and
SF
バックル
PCR
##qu
重く
一斉
##イク
プリンタドライバ
回線網
1100
##リスリ
張出
メニスカス
重合度
##ビル
ガイ
成型品
有意
滑動
自動制御
好気
タブレット
##TML
コスト的
##詰め
靱性
建屋
ソーダ
##ML
ソルビ
メンブ
ベア
シャンク
コンピューター
音圧
床版
しっかり
数式
CMP
水道水
据付
伝わる
地表
引き戸
##un
フォーカ
##ベリング
ストア
##ps
プランジャー
##64
戻っ
受け皿
調停
払出し
フルカラー
##履歴
ジャン
ラウンド
##クロス
フォークリフト
単相
減量
足り
対照
手袋
節点
害虫
無くし
テレフタル
ZrO
##MC
すすぎ
渡り
##水素
すり
##orr
液量
MAC
折り曲げる
乗車券
除塵
再起
外郭
##ミノ
ポリマ
多糖類
##ラーゲン
ダム
郵便物
リングギヤ
トリス
会計
##ミカル
アッパ
クロマトグラフィー
マルチプレクサ
掛ける
蓋板
糖類
インパルス
交わる
ラバー
トロイダル
ヤング
熱容量
スタンバイ
先細
ハイパー
単数
AlGa
アダプター
リーブ
クリーンルーム
十字
ジアルキル
ポテンシャル
初めて
アーマチュア
シクロヘキサン
摂取
##マイズ
交番
##ネータ
差し込む
片部
矢板
楽しむ
ウエット
##98
溶銑
合板
HTML
呈し
650
埋め込ん
デフォ
##コンテンツ
販売店
冷風
布地
対戦
AA
電解水
Br
##DC
##ーラス
再起動
入れ替え
植栽
##100
ねじり
入庫
ログイン
##スタンプ
同数
おか
フォトリ
家屋
地山
スイ
上回る
山形
ブランケット
##バリ
ポリアルキレン
タクシ
背後
吊り上げ
細管
水準
仕切ら
座金
導水
物上
警備
pro
潜在
PRO
兼ね備
下回る
分配器
ストラ
メタライズ
検定
浸炭
スロー
形態素
一番
注水
プラットフォーム
通信速度
エミュ
重い
継電
練り
シャープ
用品
異音
ウェーブ
##リスリトール
アジャ
キャブ
乗用
渦巻き
##スルホン
車種
電場
打ち込み
コラーゲン
タイムスタンプ
##ical
毒性
スラリ
発券
##期限
グラビア
所与
主流
集水
##アーム
対比
捨て
面し
弧状
音色
渦流
FIFO
打抜き
ハーフト
貼り合わせる
心臓
ベル
Vo
オイルポンプ
期待値
省エネ
遊び
ポインティングデバイス
##ルタ
トランスデューサ
合理的
暖機
##ピロリドン
索引
測色
地下水
あわせ
割引
横向き
構わ
ストレート
ブーツ
トレーニング
##イスト
パッキング
整流器
包み
次亜
ハーフトーン
検査結果
ダイカ
ボー
収まる
直方体
側溝
高次
束ね
ジエチレングリコール
外向き
tan
耐湿
##セルロース
宣伝
##クセル
K2
無効化
##37
減衰器
増速
##ライブ
公差
ケージ
縦長
バンパ
破棄
着弾
額縁
過冷
パーセント
復元力
まっ
##im
苗植
##yn
区切
##yr
##ベーション
DP
臭化
##ers
水和物
ホウ酸
ブタ
ウイン
ビジ
四方
ボールペン
推移
混合比
チョッパ
コルゲート
端板
代謝
賦形
ロッカ
フォーカシング
省力
調圧
タクシー
今後
DM
##まら
ガスメータ
フェイス
延長線
準位
ネオ
傾倒
滑車
載せる
塩水
##ブチ
背部
配位子
彩色
CG
##ンサイト
器体
H2
##イラー
H2O
タルク
契機
包装材料
溜り
バスライン
##規則
コードレス
バンドパスフィルタ
ステータコア
スパーク
重錘
秘匿
面体
望遠
再結晶
継続的
フェルト
継ぎ目
レポート
ウォブル
さえ
##ギング
枢軸
植毛
131
キャニスタ
継ぎ手
光輝
コンクリートブロック
推論
名刺
上板
顕像
重なら
プーリー
ブテン
絡み
流動化
##リジ
目印
泥水
首部
プリセット
受理
熱水
居室
##フィール
トーション
鎖状
論理的
アセテート
もっと
##ホルム
指先
段数
進める
不規則
エンティ
キャピラリ
Sm
##ミス
トラス
補う
AGC
ガイダンス
開口率
SW
谷部
重ね合わせる
酸洗
##プラス
送気
レンダリング
バンパー
##ミウム
##巻き
##偏差
標準偏差
住戸
ごとき
TiN
240
蒸気圧
金種
都合
ブルー
スポーツ
多項
##ガン
##印刷
鋳鉄
118
##フュ
DA
都市
場面
受入れ
老化
ブロード
ジメチルアミノ
折り畳ま
中途
余白
有益
ルックアップ
##シュレータ
くさび
梯子
Mw
細径
見かけ
来る
グラウト
売り
123
配する
遮熱
崩れ
追記
ドップ
真円
##マンド
##コポリマー
ジャンル
アルバ
単調
AK
##エート
素地
潜熱
cc
引き抜く
摘み
沿い
アブソ
アンダ
新聞
##ない
引き続き
MO
##ハロ
cDNA
レット
SB
ストリ
気温
同志
実行時
過電
過電圧
CC
堆肥
注湯
デジタルコンテンツ
一人
吹付け
##ライニング
過冷却
Ac
音質
エンジンルーム
確か
スクレー
無機物
10000
壁材
軽い
海苔
閉じ込め
採っ
エル
短冊
揃える
##商標
登録商標
79
前項
埋める
排煙
折り畳ん
不動産
間違
滑走
根太
非表示
##かれ
櫛歯
被検者
ウエハー
サドル
##変化
##ine
設けれ
開先
シリンジ
メス
アイソレータ
ペルチ
##エア
領域外
硬い
th
##心地
スキップ
冊子
相手方
##解決
##68
##棄物
##廃棄物
フェニレン
産業廃棄物
取手
マネージャ
TR
公昭
結局
安く
繋がる
ファインダー
##MS
感じる
尤度
##デカ
##手順
処理手順
熟成
##リスト
##掛かり
##乾燥
##落とし
緊締
ひび割れ
書き込ん
追随
##消す
入力画面
##74
RS
オキソ
##US
##ペンチル
避難
検針
滑剤
キシレン
整合性
IEE
直流電流
##らく
##TFE
集合住宅
エク
ファームウェア
グレーティング
余地
CDROM
ハーフミラー
挟み込ん
ピラ
##セプタ
アセタール
適量
##グレーション
##スルフィド
IL
遠隔地
加味
キース
浮体
スライドドア
マルテ
ロジン
採光
ダイカスト
ポリオキシアルキレン
チェン
AT
半円
しばし
続行
クーラント
吸着性
高まり
極小
マルテンサイト
カンチ
生体内
新設
コハク
洗車
排液
食感
解答
釣竿
球数
小物
膨脹
毛細
紙片
巻き上げ
IEEE
しばしば
書換え
経口
創案
印画紙
ミル
沈澱
数値制御
アルバム
時定
可溶化
往路
締め付ける
##越し
GHz
重ね合わさ
狭窄
後縁
ラマン
相異
平ら
つか
即時
案出
ステート
氏名
押し下げ
ポンチ
スラット
アニメーション
コンデンサー
及ぶ
オルガノポリシロキサン
乱流
応募
小片
交流電流
厳しい
加工品
PTC
バスケット
ランタ
##ens
もたらさ
メモ
敷き
RC
##ターゼ
あい
楕円形
腐食性
安心
冷凍室
##コンバータ
スロープ
##ウォ
マイクロフォン
##ジェクター
波数
com
ピエ
経年
124
##プライ
ウェハー
非金属
金銭
支部
稼働率
##ES
給水管
Cd
嵌め込ま
バッフル
直管
貯水槽
##ーチング
##改良
地盤改良
橋梁
##小限
##最小限
必要最小限
ピグメント
制御棒
取っ手
さま
##ぶれ
スチルカメラ
フォトリソ
制御盤
グループ内
得点
正当性
ピエゾ
メンブレン
ノニオン
石鹸
190
能基
##ロディ
##スティック
破砕機
##細胞
リモートコントロール
SR
依然
剛体
##act
横長
弊害
上辺
可視化
オーク
エンティティ
脱窒
##22
Se
模式
ホト
低廉
ニュート
作業環境
VL
様子
正方形
吹き込み
碍子
##時計
カットオフ
送り込ま
自走式
差し込ん
株式
ニュー
エジェクタ
##ヘキサ
見本
編物
鉄系
保湿
逓倍
帯板
IN
ドレーン
スペア
食用
引っ掛け
##78
プレゼン
印象
##アゾール
135
プロピオン
スティック
最良
##ide
##ジアミン
##止める
四辺
単純化
クラブ
ハライド
各段
Eu
持ち運び
動か
納入
世代
##食品
##ーバー
VII
目盛り
菓子
指摘
Tb
チャッキング
アッセンブリ
ロックピン
SS
山部
##イルド
##ゴニ
インジケータ
##min
症状
自機
招き
##ウェーハ
##ッチン
##周波数
サンプリング周波数
ランダムアクセス
##and
布設
最低限
時定数
CATV
進角
上死
収受
Ser
硫化物
宛て
払い出さ
繁殖
いき
移動先
明示
エアク
空気清
字形
小麦
脆弱
加減速
##ラクトン
イグニ
連結ピン
##ate
近辺
##硫酸
記事
弾性波
期待感
水抜き
ストリー
HDD
##オリ
オークション
取り外さ
##ントリ
減じ
省力化
##ざま
ジイソ
##ンプン
失火
血清
寄せ
抵抗性
飼育
実状
ハードウエア
リソグラフィー
ヘキサン
カンチレバー
車高
風車
##リース
##キストリン
外板
漏電
ローリング
DCT
粘着力
不在
ペルチェ
コヒー
##HF
無音
パリ
##ねり
##効率
前壁
徴収
ダイクロ
抵抗力
さまざま
富ん
富化
アプリケーションソフト
誤操作
繊度
変わら
外科
##バナ
アスコル
フルオ
持ち上げる
##ジメチル
##オキシド
伴わ
充満
一段
置台
##トライ
メガ
##商取引
##ビリ
点字
電子商取引
板ガラス
人数
高齢
NOX
りん
InGa
漏れる
アプ
al
キング
##プロピレングリコール
レッド
調味料
引抜き
後半
混雑
繰出し
剥離紙
指し
スワ
ずらす
増やし
##エル
キル
役立つ
切り離す
揮散
送話
飛灰
単なる
水添
##押し
ドアロック
##サービス
##エンド
明瞭
良質
介さ
##ゴニスト
広がっ
##33
節減
##レーナ
両方向
片手
##ばさ
##グリセ
遅ら
ボロン
##ゲーム
EV
##ホーム
巻き付ける
外接
デフォルト
打ち抜
後ろ
プロジェクト
ブック
ビー
受け止め
余り
遠方
乾燥室
MA
節電
宇宙
アクセス権
シンプル
試し
##プラスチック
キッチン
ぶれ
立坑
ソルダー
つ折り
ついで
ミッション
衣料
受熱
はず
アームレスト
##ステーション
オーミック
抜き出し
被害
ノーマ
St
耐火性
選ぶ
デカ
##ビリティ
キャラ
教材
香り
##ジド
年齢
ダイクロイック
現時
ソール
編地
向ける
対抗
キャスター
架構
##付く
風路
##プロン
スクラップ
##コネ
薬理
光度
手元
ピッキング
回帰
キャパシタンス
電子署名
##キュラー
132
引き起こし
##ノズル
光起
##ds
再帰
sin
含める
路線
##通し
ホルモン
板間
洩れ
兼ね備え
##たた
誤り率
##計算
亘り
##たし
ウインチ
どれ
配車
造成
##改札
不自
##ルーフ
エバポレータ
分かり
流れ込む
細分
##AA
ブトキシ
バーン
内向き
調合
リポ
ポリブタジエン
アパ
混色
ノルボル
管端
プレゼンテーション
SE
及ぼさ
##生産
自動改札
ベリ
機内
健全
手数
探し
##LL
数百
電話帳
ハフ
##衛星
膜状
現時点
移動度
フィードフォ
切り替わる
ms
##入力
ブレーカ
鳴動
手摺り
##かつ
斜行
不可欠
##差し
逃がし
重ねる
ストレッチ
レジン
枝管
VTR
冷温
救済
##ob
鑑賞
MS
グリセ
字幕
301
消泡
分泌
ジュ
##オル
ランナ
現在地
吸湿性
SH
##エッチング
マッチ
##アニ
液剤
カートン
##アシ
貫入
ワッシャ
ミニ
合わ
フィードフォワード
感触
無くなり
総合的
##45
##プタン
##ure
OA
台板
復路
地絡
##ンドリ
嵌め込み
状況下
世界
区分け
最下位
##合わせる
肉盛
アスコルビン
##ラミド
クランクケース
##ub
玄米
フレネル
進出
シーラ
紡績
宅配
移動中
急峻
モノクローナル
標準的
方面
幅狭
明るく
割付
##ベート
不定
証券
読み込ま
人為
##UI
直す
糖尿
##タイプ
ボウ
デンプン
##ボトル
##バーサル
乗せ
通帳
オートフォーカス
切り換
ポリテトラフルオロエチレン
脱硝
給電線
重視
払い出す
モーション
部数
四隅
定速
##ハウ
管壁
##Mn
##すり
累計
ワークフロー
機械室
読取っ
呼び出す
圧縮力
大量生産
海底
バルコ
発展
手続
逃がす
停止中
オフィス
PCB
かん
富む
セレン
磁区
NP
イニ
ロケーション
ボア
##直し
##96
古い
患部
様式
ビジネス
フィンガー
ラグ
##ファレンシャル
背板
ツェ
多項式
対価
MISFET
SI
##付い
保形
アレルギー
一切
冷暖房
AlN
カド
320
熱効率
イット
##ーティ
疎水
描く
外付け
##ルトリメトキシシラン
巻き取ら
音素
##場所
##み込み
##Co
端点
包絡
117
##グリシジル
ファイルシステム
ピペ
拡幅
メサ
損ね
カオ
rpm
##介護
延ばす
サリ
##ミダゾ
リーフ
アンロック
建具
ウオ
数段
感情
ハイレベル
##会議
テスタ
ワニス
出金
受口
突然
菌体
通信中
キースイッチ
デイ
すむ
植え
##ルダー
##ff
##ステイン
一直
##36
中点
ホイル
複合機
一直線
##クラッチ
##フィラメント
カブリ
揚水
##lu
有効性
露呈
刷版
浮動
透水
面白
エチ
ヘア
アクリロイル
フィット
排泄物
転化
孤立
産物
聴覚
精米
有効期限
成層
眼球
シクロヘキサ
かみ
扱い
シンチ
イソシア
油剤
##油性
##av
##リジウム
ネットワークアドレス
SAW
##yst
ジヒドロ
トリアジン
手軽
足部
RH
トルクコンバータ
規格化
ゼロクロス
梁部
すくい
茶葉
アルファ
定期券
納期
取入
ライフ
ペースト状
ED
塵芥
糖尿病
tr
掃引
##RC
##ph
ショベル
ディフュ
短期間
エチルヘキシル
乗り越
分岐点
長所
フィンガ
乾留
大腸
歌唱
クリーナ
##ボール
レシート
PTFE
上枠
アブソーバ
暗い
コールド
キャスタ
目立た
コレット
##かく
マニピュ
引い
周期律
運送
トランク
無色
受台
基準線
巻き掛け
垂直面
セットアップ
降雨
現実的
電子化
ダッシュ
インターバル
下がる
ポリブチレン
##転換
ボート
緩衝液
臭い
##寸法
集熱
外形寸法
発火
##プラント
光熱
不充
不充分
構文
##ウイルス
折りたた
判定基準
無害化
短尺
##障害
布団
BGA
がち
ヒット
##締め
恒温
貯槽
千鳥
##tein
船外
##エトキシシラン
ヘキシル
現地
ビーコン
ブロック体
##パルス
水車
##せん
品目
##TS
##コラム
イコ
##pt
すき
生化学
##の間
部外
試行
何度
スパイク
有色
太陽光発電
毛細管
スタッカ
入れ子
スプレ
かさ
つける
計算結果
繰り出さ
##ボビン
トリエ
ペーパ
示唆
動かし
ビート
##ロジー
ナフト
殺菌剤
パウチ
##85
ワイピング
##しろ
イヤ
未処理
欠失
著作物
リーダー
##Ge
取出す
遠位
最上
キルン
パット
幹線
タンデ
##留め
ボーナス
##し込み
ファスナ
除草
秒間
採血
調和
##st
キャラクター
かぶ
矩形波
計測器
プライマ
ガラ
硼素
リップル
レセプタ
コイルボビン
##ツト
応える
##ファイア
##タリ
行方
不特
不特定
09
チェンジ
納品
##ポジション
導い
ルーバー
トウ
統計的
EM
終了時刻
オイルパン
ブラウン
インシュレータ
地肌
賦活
改札
長鎖
停留
進路
サイン
カプセル化
##ダイゼーション
リバース
トリフルオロメチル
##ブラシ
引上げ
医師
ただ
助長
曝さ
米飯
##Cr
##ーニング
イグニッション
メタロ
ダイパッド
幅広い
プレキャストコンクリート
スポーク
##インターフェース
箱形
鉱石
Tc
プレビュー
いえる
盛土
ブレーク
体形
##カーボン
発送
防腐
205
建て
パリソン
##カット
原価
格別
送り込み
温度計
互換性
方向転換
##ボア
##クティブ
BL
高湿
日常
陰影
##フィルター
周溝
堆積物
キャビン
堅牢
医療機関
海洋
TP
##ックル
プラットホーム
ポリシロキサン
奏し
協調
汲み
##プロパ
貼付け
差し引い
##グリコール
##ium
レプリ
落とす
MI
立方
入出庫
等分
厨芥
最小化
圧搾
経費
フロッ
##置き
バキュ
##ンバ
タンデム
集団
化合
##より
穴あ
樹木
##しかっ
やり取り
脱炭
バーチャ
ジアミノ
ファンクション
ローダ
エスカ
##バッ
火力
引き上げる
EEP
小規模
社会
ビフェニル
皮革
鋸歯
サンドイッチ
発芽
曲折
リクライニング
##29
ペイ
扇形
サンギヤ
ワイヤロープ
##ピット
分量
##ラグ
##ill
再始
再始動
捲縮
##レタ
吹き出さ
##石灰
審査
HL
89
##つぼ
数多
カゴ
拡縮
なぜ
イジェクト
取り替え
高齢者
グラス
平均的
切粉
起きる
うま
遠く
##ぎり
掲示板
平方
##EB
つなぐ
特徴的
マニピュレータ
丸め
##ence
バッキング
全幅
##ンチウム
抜き取り
##メタル
ロジウム
シンクロ
##観的
統括
0001
トランスポ
##おう
日射
ネットワーク機器
逆浸
逆浸透
CDR
回覧
混合器
切り出す
ストリーミング
Vs
煩わしい
巻上
玉軸
玉軸受
ケミカル
ボンベ
体温
飛び出し
エンベ
カッティング
##持つ
ブタン
イミダゾール
オーバーコート
ナフチル
##業者
相似
音高
明暗
ドクター
横行
鮮度
キト
イリジウム
##込める
レゾル
隔膜
##文字
211
遠ざかる
なおかつ
フラー
ラダー
穴内
EEPROM
一元
粉砕機
ドレッシング
Gd
##ダクト
ラッピング
ショッピング
常用
ステアリングコラム
幼児
トラフ
前半
トラバース
ストロンチウム
チョークコイル
蓄える
同形
短波
織機
属し
間仕切
AM
封鎖
シル
風合い
るつぼ
##76
メチルスチレン
キャッチ
方位角
インパクト
##ピース
受講
##エリスリトール
間違い
イソプレン
乏しい
今まで
歯面
機能的
他人
微弱
##クチック
##焚き
##アセテート
結ん
先立ち
浅く
原子力
シラ
フラーレン
空け
招来
アジピン
転舵
鉄板
GND
cos
浄化槽
数多く
箱型
バーチャル
ロッキング
空転
膜面
##スカイト
づける
ガバナ
製袋
##モル
##き出し
複合型
微動
少数
取込み
##アーゼ
血流
抗酸化
歌詞
鉄粉
重大
透明度
連繋
鋼線
表色
各別
構造式
手首
グラウンド
RP
薄片
信用
##ーブン
万一
結着剤
本件
##コーター
立ち上がる
みる
溢れ
ブッシング
トリメチロール
包材
無菌
##ラッシュ
ノルボルネン
切離
封緘
WO
##登録
重さ
入り口
ハイブリダイゼーション
継電器
靴底
128
サービスエリア
送達
つば
TM
フェイル
吸盤
公共
描か
擦り
きめ
播種
不適切
小数
クローズ
継目
##ib
インド
支保
刻印
好都合
歯形
BO
沈下
コンタクトピン
ゲッタ
アイドリング
外来
オペアンプ
揃っ
カ所
左右対称
##じみ
センタリング
認定
延性
スキッド
ポーラス
サブバンド
半部
##ロブスカイト
コロイダル
GUI
プラテンローラ
切込
フォトリソグラフィ
##グロ
ポンピング
##介護者
注射器
造影
廃熱
##ステリック
はずれ
換気扇
スクレーパ
亘る
木造
さらさ
フレーク
スムース
要否
測温
転造
滲み
電磁力
スタイル
##シフト
##ダイズ
焼入
殺虫
スクライブ
係留
粉炭
##タノールアミン
ブレース
ペロブスカイト
供試
両性
モア
##サイン
座標軸
フォーミング
案件
212
##ーソン
メロディ
##55
人力
配筋
農産物
洗い場
データセット
キトサン
操作方法
掘り
カスタマイズ
横型
発射装置
関連性
ブロードキャスト
同義
206
カルテ
##価値
メソッド
シリケート
空所
##アルミ
リリース
ディレイ
ユニーク
エタン
改修
地形
チャイルド
キャピラリー
書込む
テレビカメラ
コンピュ
##シュート
カビ
角膜
コレステリック
放水
きれい
ジグザ
満杯
ポリアセ
破線
##ログラ
廉価
バルコニー
角柱
施肥
壁紙
称さ
メインフレーム
##ドン
オゾンガス
巻付け
イオウ
##スケ
電導
##起こし
押し込ま
配向性
両面印刷
上がる
後壁
行なえ
##ーザー
##っくり
カフ
AND
電話網
プラスミド
爆発力
下辺
引用
カルバモイル
##落ちる
レベリング
Vd
広幅
伴奏
顕色
弗化
炉壁
##ビーム
アクセサ
リフタ
殊に
##ブリング
感受
連絡先
PVA
ガス抜き
変わり
ニュートラル
連系
心拍
クランパ
ティッシュ
衛生的
mPa
コリメート
うねり
ゆく
##ービング
標示
筋肉
##ンドリカル
本管
シンセ
養殖
風圧
収め
食塩
##GG
浄水器
下式
離す
下がり
デュ
Rb
製紙
画分
表出
データパケット
OCH
##マチック
##ロピ
##スタット
VD
気管
et
各辺
希薄
ポリシー
残差
ケーソン
不整合
組成式
古紙
写像
750
IR
##ンプレ
##裂き
進展
送電線
発信器
インスタンス
冷延
##ブック
折り返さ
長径
アロ
デニール
ねじ山
集音
汚物
##ポール
学習者
インライン
シリンドリカル
伝言
弁軸
注視
##くら
近づけ
フリット
510
送っ
軒先
勤務
ボディー
##ウォール
はさ
縦断
サーキュ
激しく
リカ
##フェクト
リトライ
1394
##フォーマンス
テンポ
##プロパン
エアクリーナ
件数
遊動
鮮鋭
グローブ
費や
打ち消す
レセプタクル
下回っ
弁別
もっとも
ベアチップ
エンベロープ
ラクトン
多様化
防虫
ポリイソ
##イドレート
BS
##ツク
ハイブリダイズ
括弧
塞が
Leu
付加価値
発言
例外
巻き込み
巻き戻し
煩わし
捩れ
経る
くぼ
##ジフェニル
呈示
VB
カムフォ
##グリセリン
パワ
##スティング
トランシ
HT
待つ
引っ張る
硬く
繋ぐ
##イコ
下糸
吹付
ブロモ
うまく
択一
流さ
引掛
##77
オス
Ts
コンテキスト
サンバイ
##ジエニル
食事
##サイズ
コンタクトレンズ
オーブン
プロキシ
像側
指導
##ノム
##yc
##フリー
認知
巻い
ビレット
ウォーター
グルタミン
##コーディング
横架材
仕方
支配
型式
ビニール
研摩
利用状況
アントラ
連れ
定規
打抜
段落
バイブ
##マウント
水硬
脱型
アラミド
けい
時効
ポリアミン
##ッテ
ジグザグ
##ガイド
日本語
引き続
在さ
MB
同極
組み合せ
AL
##エタン
##ロイド
ホスフィン
輻射熱
ルアー
囲い
加わり
田植
MRI
内接
##メラーゼ
ショルダー
泥土
##ベアリング
空白
パンチング
とど
ハンマ
カテゴ
バキューム
##キャップ
##血球
プレポリマー
HF
TAB
対地
染色体
湯温
成っ
クラスター
ノッキング
##寄り
反する
##資源
vol
ディスクブレーキ
##Zn
手指
##ます
シーラント
はかる
架け
最少
押込み
渡す
教師
待た
伝わり
エアシリンダ
ファラ
ゴムシート
カロリー
真偽
##継ぎ
1300
##ミア
体圧
コンダクタ
##リーレン
合わせ面
入部
プラズマエッチング
ロング
体験
Er
登録者
嵩む
##テイ
剥がし
入り込み
アンカ
いち
タクト
押付け
##ざん
決まっ
##重量
##44
302
##ストリップ
シリーズ
体外
起こっ
飲食物
等方性
##ete
エスカレータ
##コンタ
チューニング
誘引
やりとり
ビデオテープ
##アセト
受渡し
タイムアウト
架空
マイカ
126
##キセ
輸液
モアレ
歯ブラシ
アルキニル
##パーオキシ
引き起こさ
押付
改ざん
激しい
小売
プロテアーゼ
ごく
踏段
ウエスト
看護
番地
BP
シワ
代入
合剤
MFR
トランスポンダ
IIIV
レコーダ
##AND
ブチ
実線
板幅
主材
水管
入力方法
コンパウンド
不感
デフ
分ける
ブート
マー
吹き込む
化物
ペットボトル
汚損
算術
薬学
柔らかい
支払う
切屑
イソブチル
聴取
ボウル
被加
##ソーム
ペン先
バイナリ
引く
定位
地層
レト
傾く
利用料金
仕上げる
ベンズ
##ホルダ
脱酸
据え付け
バッファー
送り量
自励
設定内容
評価対象
デリ
ねじ込み
存し
転炉
板の間
流動体
選ん
カン
考案
待ち受け
##ive
カテゴリー
シリカゲル
サセプタ
##ニュ
倒伏
織り
近づい
パラメーター
max
臨床
ポリブチレンテレフタレート
トラクション
ギャ
モデル化
プロフィール
弁箱
仕組み
##SL
キズ
現行
嵌め込む
調達
メタクリロ
015
アニリン
込む
グラフィックス
RD
水硬性
共晶
ストレーナ
かえ
人為的
エージング
下塗り
狭め
ポータ
破れ
270
dt
設備費
ルーバ
員環
らせん
イソブ
トランシーバ
動態
Con
頸部
取ら
レトルト
ジブチル
防い
ミュ
集中的
取り除い
カーナ
初め
あた
ブリード
云う
破裂
適さ
すみ
除し
処理系
向かい合う
踏み込み
土質
壁板
ECU
##燃料
取れ
ビール
人工衛星
表示灯
ch
葉書
##がい
スロ
##クロック
硝化
Dis
##障害者
##不足
混ぜ
##TiO
生かし
##アンブル
縦溝
アカ
こぼ
HP
焼き付け
マルチパス
XML
むしろ
って
フロン
重質
抱持
封印
##ケトン
134
メトリ
イントラ
##オキサ
ゲノム
外出
根本
可聴
室内温度
色温度
前枠
An
ジアゾ
サファイア
車載器
剰余
compl
##限り
ロケット
##読み
オング
均熱
押しつけ
溜まる
偏っ
##プラグ
及ぼし
##igh
眼科
食物
中継局
RE
ブタンジオール
クリン
アーキ
処理単位
違反
##リノ
血漿
キャッピング
短軸
周長
イットリウム
##支え
##ホルド
安全弁
当てる
グリッパ
母体
油量
編組
経営
トランジ
手すり
##シール
BET
印鑑
アーキテ
##SA
NT
アクスル
よつ
He
がたつき
流用
ポータブル
ボンネット
ホッピング
アップロード
強酸
在庫管理
カドミウム
次々
トリクロロ
ラジアルタイヤ
レスト
空気清浄機
リズム
囲ん
##立ち
キャビティー
ラウリル
引っ張ら
適所
ダンプ
##リーブ
磁力線
大掛かり
##がみ
標準化
集塵機
射影
培養液
女性
##39
##79
iv
酸素量
タオル
バランサ
##ステロール
前板
帯び
ツイスト
##フルオ
前期
PVC
ストリング
eV
log
側圧
捩り
汚濁
ボーリング
##イミダゾール
CB
キャリアガス
スタブ
プレーヤー
##DP
エアフィルタ
波板
前置
インプラント
共通鍵
シンセサイ
弁棒
酪酸
丸み
オングストロ
くぼみ
ポリフェニレンエーテル
ゆっくり
埋込み
エプロン
波動
##放送
細粒
Rf
膜質
釉薬
履物
ノーマル
減圧弁
細分化
Webサーバ
ハンディ
##チャー
ネジ止め
助手
偏位
リボ
##戻す
立上がり
エミッション
消し
ベンゾフェノン
加湿器
リグ
ドデシル
突合せ
防御
右端
ウェブサイト
改竄
ジブ
フィーリング
親指
輪車
##かい
あらわ
トグル
##バコ
背中
言える
コンビ
ポリアセタール
乗物
操作盤
除き
##るい
つながっ
##ペンタジエニル
ブザー
動い
Ala
ヒドラジン
レンチキュラー
終わり
フープ
141
機外
スタビ
##ist
フロッピー
最中
亙っ
浮か
インクリ
x1
乗っ
##up
較べ
点状
##ノー
管部
キセ
腹部
体表
##マーシャル
Chem
蒸散
かかわる
水底
フレネルレンズ
##age
ディンプル
具現
パーティション
スキー
円偏
大形
円偏光
受取人
ジン
液膜
ファクタ
伸度
折り畳む
仰角
受付ける
正解
臓器
縮尺
高値
きたす
かま
sp
相同
##グループ
##ロキシ
アーキテクチャ
ホログラ
##ネレーション
コマーシャル
称す
##づれ
トリップ
媒介
諸元
文字数
リピ
収録
サブタンク
サーキュレータ
##リアル
主剤
短手
スタッ
偏倚
コンパイル
オングストローム
あて
内底
##べく
##BA
##アクリル
ZnS
トリフェニル
来す
なるべく
シス
振り分ける
##アイ
##固め
掴み
軸力
竪型
生徒
##エンス
スジ
下板
クロメート
いづれ
鍍金
並進
電気量
##リーダ
難しかっ
チッピング
##ピック
##ウィ
感性
図書
睡眠
##コンタクト
mM
委託
釣り糸
純粋
妥当
捲回
##たん
##ノル
三方
粗い
ワイド
踏板
##マルチ
太く
銘柄
切開
基剤
260
触覚
##OR
大腿
SiH
断裁
##ニュー
主筋
シンチレータ
感受性
フレア
遮ら
152
違う
読込
850
水相
##AP
##クロル
素片
添剤
忠実
主弁
イベント情報
Sp
バタ
顔面
protein
立体視
内気
看板
##ev
力率
精神
型材
ヘリコ
刈り
280
はる
閉め
健康管理
補足
擦れ
レプリカ
complete
##ーカット
サブピ
タック
信号機
Cs
バグ
計算式
太い
プロジェクション
開裂
pp
採点
軟弱
##エリアネットワーク
##引く
##業員
ファラデー
内在
キャビテーション
##ロワ
染毛
##ローチ
##ystem
下階
リンク先
ダイバーシチ
魚釣
取鍋
ローカルエリアネットワーク
##モジュール
ストロー
##ビー
PID
便宜
サポ
アルカン
テストデータ
スピネル
ブチレン
シリンダボア
上階
いっそう
##ノブ
Gly
TN
膨らみ
##振れ
眼底
根部
フリクション
ヘルメット
歩道
開始時間
##rom
ブロック化
アッセイ
待避
##48
メタロセン
LN
公害
切り離さ
WEB
##すれ
およそ
##66
##ノラ
選択方法
ヘキサメチレン
知覚
主部
ベンド
従業員
内槽
チタニア
SRAM
シームレス
レー
高速度
キャスト
極限
系外
520
過不足
##インダ
終え
注型
##なく
最悪
##ON
消臭剤
内袋
厨房
盤上
NAND
サリチル
スリープ
ブースタ
##ナン
アウェイ
トポ
ビデオゲーム
横桟
熱板
算出方法
忌避
国際
留め具
フィブ
ユニバーサル
スクラッチ
交絡
InP
暴露
鏡胴
比べる
助手席
家畜
思想
フリッカ
豆腐
組込み
コンダクタンス
ペンテン
ゲイト
留守番
##テキスト
脱出
見な
地板
##デル
積分器
列挙
張出し
ともなっ
美容
高機能
上糸
テント
岩盤
日数
リアクタンス
つながり
ボイラー
生ぜ
マレイミド
##ほど
得よう
##ブレード
埋没
段付き
排出ガス
コーディング
バリヤ
ALC
不燃性
上壁
入ら
##Te
##スクリーン
映し
巨大
エッチングガス
トラニオン
プロパノール
ペイロード
後行
イミダゾ
許諾
退出
プライバ
サウンド
放物
回転翼
たく
暴走
除菌
スマ
CONH
##ワイヤ
浸出
Met
巻上げ
ペンタエリスリトール
傾転
##オノ
ピストンリング
アルギン
上塗り
##塗料
##ーカー
セカ
##チェンジ
はるか
合計値
##ナトリウム
プッシュプル
鉄塔
亜硫酸
DCDC
Inter
シム
見出さ
ねじ止め
早送り
ペリクル
遮る
アンダーカット
鉄芯
##ンダリ
シンセサイザ
ブラウン管
老人
コンフィ
食器洗い
マニホルド
開錠
聞き
##地図
##ミジン
ニウム
ドナー
活性剤
##ヨン
ツェナー
固結
データー
##剥が
##ヒドリン
冷却材
徐放
厚紙
キセノン
##スチ
乱反射
線径
WC
坩堝
サブユニット
返し
挟み込ま
メトリック
資格
穴あけ
Torr
放射光
撓む
電車
屋上
##変動
単極
適正化
電柱
オフライン
作り出す
フロック
引き剥が
曲げる
渡し
占め
基点
仮名
バン
##フック
蒸留塔
勢い
乾燥剤
彫刻
確率変動
マザーボード
##レンサ
dl
##明書
ヒュ
情報源
MT
オール
Hs
ロードセル
##ルガノシロキサン
季節
プルアップ
利用方法
各面
原板
物量
##落とす
長波
バイメタル
##クレ
文節
代用
セロ
プリアンブル
エントリー
太陽熱
##フラー
ドアパネル
緊急時
食器洗浄機
水域
VO
コック
敏感
PI
口内
突き刺
ph
バット
HM
HA
##NT
跨っ
おお
##ロップ
##ペーパー
発生率
掛かり
IDT
潰れ
積み上げ
バイブレータ
##マイト
420
保安
体面
石材
初段
##抵抗
首振り
屋根板
ストラット
割っ
Kg
見当
受け止める
HI
lt
引き寄せ
レシピ
難易
1010
タバコ
ノーズ
並置
内箱
丸棒
例え
下がっ
腰部
骨組
cds
極大値
SL
##工業
債権
アプローチ
分から
プルダウン
##状態
##ミキサ
だし
乾電池
##ステップ
パッシベーション
作品
享受
パトロ
##ッダ
DSP
クローン
##ランダ
RT
CI
否定
##プレイ
##32
甘味
##ホース
スチロール
みなし
パティキュレートフィルタ
RO
宛名
拡がり
カーナビゲーション
もとより
ジョー
持続性
ビードコア
油膜
配電線
きめ細
底辺
インダ
ディップ
剥がす
水田
無機酸
NPN
隠れ
コンパクトディスク
ベンゾイル
##しょう
陰イオン
募集
##レンジアミン
釣銭
貯蔵庫
JP
オーバーシュート
腕時計
##eg
カセ
入光
FC
望む
シミュレート
出入口
mA
##ッショ
道路地図
安定度
揺らぎ
ブラッグ
金属片
至ら
バラスト
半値
各点
##ばこ
没入
音場
エンドミル
ディフューザ
露点
固溶体
土地
譲渡
##クロマト
##びれ
電路
PDA
押込
果物
話題
ボケ
ワークステーション
ディスペンサ
マフラー
揚げ
のび
##ym
確実性
セーブ
アイロン
狭める
貸与
副作用
クエ
映画
横切っ
##EL
線条体
スケーリング
並べ替え
照光
ブロワ
粘膜
体裁
分電
インレット
木目
直ぐ
マグネシア
非破
非破壊
ブタノール
151
局間
橋脚
送波
##次元
4000
CV
引き込む
列状
ドアホン
多方
商取引
交流発電
交流発電機
渡る
業務用
咬合
窓口
コンディ
作成者
フマル
敷地
##検査
アクセス手段
##決済
ソルビタン
可変抵抗
可変抵抗器
引き離
##ニッシュ
目安
##イオード
シリコンウェーハ
抜ける
##キセン
インタラ
入出金
410
SM
捉え
代表値
緯度
抄造
Ig
補填
シュリンク
##SS
伸線
##ノイル
周波数変調
押し潰
##モノマー
バクテ
放流
収める
高能
消泡剤
SV
304
運搬車
イミノ
##ii
読取ら
##88
プッシャ
働か
分析計
吸い込ま
近赤
近赤外線
白色光
引込み
ジシクロ
PCI
##ンシャル
引き込ま
安い
荷受
##TCC
半減
劣り
ワンウェイ
有孔
インターロック
排土
##たく
ハードディスクドライブ
動揺
##ノラマ
始まる
kV
煙突
119
クロル
パノラマ
タンディ
マフラ
主管
950
契約者
インス
知り
増倍
胴縁
耐用
有料道路
Dy
冶具
VCO
曲り
塞ぎ
##スタン
減り
給湯機
イタ
護岸
サクション
呼気
裏打ち
増感剤
ふるい
スカム
療法
出発地
添付ファイル
型板
##ial
伸ばし
リセス
##ラール
ダン
コップ
ピリジル
かき
バーンイン
警戒
##ox
亜硝
亜硝酸
142
醗酵
注ぎ
ベントナイト
セパレーター
押し込ん
あげる
サプライ
ブロア
##イネーブル
台所
##フード
COOH
El
##オイル
よび
##GF
晒さ
##レコーダ
アマ
D3
デシ
##orm
機上
ヘッドランプ
ヶ所
ピアノ
カウル
撓ま
##係数
アッシュ
##oS
ファンネル
PF
引っか
定置
過充
突き当
過充電
高まっ
浸水
##デカン
掃気
解決策
総重量
平面図
パージガス
措置
ブレーキシ
コージェ
できる限り
##KOH
外字
集成
一貫
ミルク
0005
装身
##ルファイド
km
ポリメチル
##がかり
交替
新鮮
メタリック
ガスバー
見出
俟っ
もら
張り出す
緩め
SnO
パフォーマンス
BC
振幅変調
合い
飛行機
厳しく
開環
HB
はじ
##アシレート
おもり
枠組
自発
##ジャ
先細り
わかり
経年変化
詰まっ
ビルド
小麦粉
##ンクロ
スキャナー
アセチレン
020
SiN
塗物
鏡板
##ack
クロー
ベンチ
プラネ
心電
意志
##iz
##作物
キャリパ
Vc
ファイリング
マルチプロセッサ
003
mgKOH
語彙
煙道
多極
LDD
ともなう
アルキルチオ
アイオノ
コンロ
##キノ
意義
くびれ
多かっ
一律
色収
色収差
##ずら
雑菌
経度
内孔
体腔
損ねる
吸排
分化
捺染
強弱
難易度
使用権
##ハンドル
グラフィカル
景観
正圧
FFT
重なり合っ
団体
内腔
見掛け
而して
ブレーキシュー
絞り込み
曲がっ
前照
直近
ストライカ
シラノール
##商品
取り除か
筆跡
トランスファー
抜き取る
振り子
コレステロール
魚介
エキスパ
常法
遅らせる
##構造
ディテ
Trans
寝具
毎回
Asp
ローレベル
ゴースト
飲み
余計
株式会社
YAG
エミュレーション
在宅
行おう
言わ
##出せる
納め
遅れる
アドバイス
各行
##ッツ
静脈
循環系
タール
OP
##Cu
仮説
交通機関
メガネ
土中
テレビ会議
##ケード
グリス
コンポジット
##ヌレート
ソースプログラム
返答
バリエーション
##ハイドロ
コンピューティング
##かも
サブセット
セルロースアシレート
材料費
履帯
最長
耐蝕
きの
鉄鋼
音像
##カルバ
農作物
##保険
トリエチル
##動物
アイオノマー
乗り物
ハイパーテキスト
腐敗
担う
##EA
テトラフルオロエチレン
##確認
AR
##ラート
自動改札機
掛かっ
コミュニティ
成績
##21
##フレクタ
基層
類似性
##mm
落ちる
ヤーン
プロット
飲料水
あたかも
ペンタン
トロリ
##らせ
Val
対称的
一軸
ドラフト
##っきり
##GBT
##ルトランジスタ
取りつけ
##フォース
ダイジェ
一群
総称
##ult
弱め
焼付け
抽気
##スペース
##テレビ
使用目的
##one
秤量
050
インテグ
サーモスタット
ベイ
加盟
寒冷
防爆
ダイジェスト
索条
成果
軽油
IT
オクタン
##シリサイド
133
アリ
kPa
軟らか
参照情報
乳房
解砕
エラストマ
拭き取り
GPa
ポリカルボン
不向き
剥ぎ
ヨーレート
ミュート
外国
平文
昆虫
警報器
糸状
進捗状況
点線
病原
##デキストリン
係わら
折損
嵌まり
無用
役目
乳酸菌
切り出さ
コヒーレント
スプリンク
つり
同位
アパタイト
作っ
効果音
デルタ
マルチキャリア
クライ
振分
##ly
羽口
ウィルス
外界
##証券
ベリファイ
気口
##たら
ブライン
##パラギン
IGBT
貼合
煉瓦
最短距離
##メチルエーテル
ジメトキシ
足りる
連想
##tex
前照灯
スルファ
タンディッシュ
切る
凍結乾燥
##メトリック
意図的
セレ
##メンタ
不揮
不揮発
肉薄
飛しょう
カプロ
暫定
海藻
受け渡す
##ブロモ
近隣
洗米
棚部
##屋根
抜き差し
イソフタル
三角波
建物内
製氷皿
耐水
大腸菌
開扉
##ピア
##ind
分かれ
仮焼
スパークプラグ
スコープ
IPv
流し台
マットレス
受取り
##ジャー
意欲
線図
たるみ
取外す
暗く
見つけ
##ity
フッ酸
筒型
会合
ホップ
開成
PCM
創作
配水
治療薬
##事者
給液
##じれ
ケン
繰り出す
引込
虚像
ますます
Vth
予算
スマート
キャンセ
シュウ
ダイアル
イヤホン
501
外部クロック
暖房機
しご
プレゼンス
ヒンダ
液温
##TG
ジョイ
330
スピニング
エアロ
圧密
FF
技法
ファジ
撓ん
見合っ
音符
係員
トレーラ
植木
快適性
ガル
差し支え
切っ
タレット
過酷
預金
##グレーティング
管制
シャトル
打ち込む
延ばし
ポリビニルピロリドン
抱え
臨ん
サンバイザ
多次元
物干
グラム
モノフィラメント
桁数
##チャージャ
BB
柄部
通信局
選び
M3
スルフィド
左端
掛合
難溶
帽子
エチレンジアミン
ディスト
##xp
砒素
FS
抜く
共沸
##月日
疾病
##ea
ろ材
##Mg
改めて
エナ
ピニオンギヤ
内縁
インジェクション
全波
オーバーヘッド
コサイン
パトローネ
NB
いったん
鎖線
準じ
相談
##67
ゆらぎ
乗り越え
傷つける
担保
プライベート
入力キー
##ッセージ
CRC
##凭れ
背凭れ
段取り
アイランド
##fer
毛羽
予期
ハンズ
魚介類
体感
ミックス
線数
塞い
角型
##タビ
アンビル
待っ
音速
交換局
近位
電気炉
Res
狭小
高レベル
相乗効果
全般
##TE
DR
もたらし
パンツ
スタティック
あたる
切れ刃
粗粒
SUS
受給
管柱
鎖錠
翼部
hr
湯沸
##排水
携帯性
逆数
掛け渡さ
乗り心地
避雷
ハンズフリー
##削減
グリコ
##比例
モールディング
無くなっ
SiGe
嵌め込ん
チエ
硬性
漏斗
義歯
客観的
身頃
フェージング
追い焚き
試験結果
食べ
##ンジェ
##崩れ
ジエステル
##ティカル
Vb
凹型
湿し
廃止
ジンバル
被せる
パーライト
肯定
豊富
バブル
調質
掻き取り
買い手
推進力
Be
縦断面
リフター
解く
トーションバー
根菜
特賞
ホスファ
言い換え
##ビウム
アンロード
吸油
穂先
バージョンアップ
システムバス
焼き付き
試作
チタニウム
##スタル
##コレート
現出
水深
既定
清潔
取得方法
DH
べた
溶離
ループアンテナ
一色
降車
矛盾
取り除き
##デイ
レンチキュラーレンズ
食い込み
会場
何回
##グラウンド
家電機器
濾布
サラ
侵入者
縮退
減光
エンドプレート
並べる
スワール
RB
##ッセ
介入
##らつき
208
チャット
小数点
一覧表
求人
##フライ
##チャート
製氷機
プラスチ
通液
##ろい
アイソレーション
##ューエル
GC
チング
消音器
空圧
多用
代わっ
灰皿
フィブリル
HS
mod
##Me
BI
リース
車輛
サイプ
デフロ
##テータ
ばらつく
体動
オシ
##プット
解明
##つぶ
主基
集める
##揚げ
OCO
装身具
消磁
アバ
##ザストリップ
##分離
水性塗料
浮き上がり
押し上げる
スプライ
言っ
ネジ穴
クロロプレン
NMR
絞る
##リシ
##ator
再発
イーサ
DTM
六方
囲み
天候
Arg
夾雑
陶磁
木炭
移動時間
半周
表情
かぶり
回転機
過酸化水素
##54
オペランド
占有率
居住者
##ZT
申し込み
雑草
プレッシャ
パドル
手振れ
Rz
充足
除雪
##隠し
パーオキサイド
フェニ
和物
##ウール
ガラクト
空い
サーメット
機材
対極
曇り
経皮
喚起
開催
コンプレッサー
Glu
221
両手
不自然
指圧
板紙
投光器
スプリット
バイオマス
炉床
コリメータレンズ
留分
VIII
増分
ラクト
カレンダ
光周
後付け
##ech
PNP
ハンチ
多軸
アト
引き続い
言葉
シュウ酸
菌株
JPEG
凸型
##31
輪転
DSC
乏しく
除染
ヘキセン
耐酸
宅内
復水器
簡潔
豆乳
折りたたみ
変移
人材
テトラヒドロ
急変
自家
プライバシー
レッグ
固形化
さほど
標本化
##ンジオ
ツェナーダイオード
##ファン
数値化
金庫
##ベンジル
##直す
##メル
ES
割り振
##レト
携行
##ジイミド
チオール
嵩高
尺度
##化プラスチック
##強化プラスチック
繊維強化プラスチック
##センター
HO
なろう
##メッセージ
出版
含油
##ホルダー
地理的
懸垂
ヘキサフルオロ
##ホルムアミド
ブル
刷毛
ヒンダード
内蓋
スキャニング
初回
パルミ
書体
##AR
時々
##プロセス
排水路
魚類
水上
バックグラウンド
針棒
回分
倍数
ウエビング
切り起こし
つくる
##払い
ストッカ
##97
いま
通用
タワー
紙管
折り込み
Yb
FD
##レングス
発注者
よび水
##ルホ
高騰
果たし
監査
##toc
視角
##all
対称性
示差
製鋼
付く
カセッテ
壁内
副生
植物性
プライマリ
失活
撚糸
読む
でる
ビタビ
不活性化
分力
ドップラ
##ッコ
先読み
Lys
落し
##トリム
有効期間
リカバリ
##ant
##促進
222
##時期
消防
結晶面
弗素
長距離
修正方法
普通紙
##ジオ
##プロポキシ
販売促進
フューエル
##ムラ
Comp
促し
バックラッシュ
温室
破片
ナンバープレート
ウェブサーバ
530
探す
##ヒクル
短径
派生
アゾビス
入退
器官
ポリッシング
制震
炎口
##ボンベ
踏面
分画
新品
フイルタ
堅固
接種
##ork
さて
与信
リタ
Ne
途切れ
##もって
ライド
垂線
##de
押しボタン
前もって
巻数
ゆる
##ゾリン
作用点
如何なる
##ズレ
チャー
配送先
画像検索
ガスエンジン
重ね合せ
藻類
付属品
昼間
オレイン
##ザン
SIM
ファックス
多方向
射出し
ポップ
載台
回す
曜日
Di
密集
焼戻し
迷惑
ハフニウム
慣用
ブローバイ
電槽
##バッファ
SQ
立下
開始時期
ポリオルガノシロキサン
AE
##uct
GOP
ジイル
ランタン
ウラン
##キシド
貼り合わさ
##短縮
時間短縮
ジビニル
System
有価証券
現わ
テレフタレート
雑誌
QoS
ダンピング
代わる
プリントアウト
賞品
##pi
ヨウ化
サイジング
繋がっ
思い
被介護者
##uc
##IA
使用率
##net
カリ
低レベル
##マレイミド
VPN
一目
砕石
事実上
囲う
プロテクト
布線
##EN
従来品
ワクチン
鋼球
##ーダイオード
溶かし
シクロペンタジエニル
##ツプ
DTMF
ユーザインターフェース
人員
アルコキシル
くし
WDM
Va
品物
##ref
収穫機
造影剤
ハイライト
##ラックス
BaO
副室
防腐剤
エンジ
スノー
印影
抜き出す
はが
通貨
繰返
取り替える
詰り
アンタ
キャプスタン
207
けい素
ぶつ
冷菓
取り入れる
個人データ
車載機
戦闘
ドーナ
303
スターリング
総て
トルマリン
for
中古
##シラ
ペンチル
荷室
##ファイバー
鏡像
##チルス
##アジ
楽譜
##アルコキシ
測定機
スタビライザ
供給者
運動量
けれ
繁雑
言い換えれ
陶磁器
TiC
こん
下肢
ドレンパン
偏在
##84
発電所
プロパティ
区切ら
ホスホン
門扉
対応表
貼り合せ
細片
航行
##ミックス
見込み
名詞
後記
##SiO
面壁
笠木
データベースサーバ
切出し
融資
しゃ
見積り
違っ
既述
雲母
適否
##ルトン
フォース
凹面鏡
跳ね上げ
判っ
引き回し
リダ
郵便番号
内臓
倣い
塩分
ツマ
芳香剤
イタコン
クロライド
##ラニン
天井板
デマンド
trans
奏さ
パーフルオロアルキル
溜める
Ln
面形
実績データ
家族
クレー
##InP
##ロジ
酸性水
プッシャー
載荷
冒頭
原子力発電
企画
調剤
ドップラー
オプティカル
以て
ジエチルアミノ
切り取り
側管
ワンウェイクラッチ
混ざ
半割
切り換わる
セクター
VR
倒立
駆除
打込み
閲覧者
OHP
制止
FR
鉄損
週間
クリー
シフタ
略称
##入り
喪失
##ital
検量
頭髪
ウイング
折れ曲がり
旋盤
多元
ほぐ
##こみ
小屋
プリピット
リポソーム
##パーゼ
降り
攪拌機
インテーク
解説
##また
軸組
湯面
潜在的
静置
FB
gt
TH
##判定
混成
フィーダー
進数
落札
##カイン
インクリメント
歪曲
##マイシン
##UV
縫目
InGaAs
洗浄機
ドライヤ
わから
アルブ
回胴
##許可
生命
運ぶ
こぼれ
レイヤー
誘導性
吹き飛
##ノース
ハンドラ
吊り下げる
グレイ
浪費
##リアス
##ネト
定在
ps
PVD
介助
蒸し
能率的
オンデ
右眼
幅広く
キシリ
展張
##関数
立上げ
タイバー
地区
BA
バクテリア
チーズ
留置
読み上げ
ペルオキシ
消石灰
FER
縦列
真上
りん酸
虹彩
VDD
dtex
増進
独特
切り欠い
引っ掛かり
GPC
停滞
##マシ
Ps
ND
コスト削減
##チャネル
401
キャンセラ
##ene
跨ぐ
##マスタ
左眼
##ブリー
DD
μg
センチ
二股
生存
道具
##モールド
軌条
毛管
便蓋
ヘッドホン
灯油
##ge
インテグレータ
服用
xy
唯一
親油性
積雪
日間
水受け
起毛
沃化
働い
アール
プラネタリ
ランレングス
ソルダ
車列
切片
##gr
##ata
店員
一義
ECC
カオリン
ツマミ
レド
法等
呈色
ライブラリー
略す
医学
凝結
アンタゴニスト
##ated
大半
懸賞
##カルボキシ
##いち
チオフェン
##アルミニウム
折目
##テンショナ
高速道路
ピング
均質化
分電盤
製織
インターポ
直し
##直ぐ
##クロライド
かえって
##パル
380
DL
パンタ
真っ
サブマウント
イーサネット
ねじ穴
ランダムアクセスメモリ
Vp
斜線
フロッピーディスク
脱する
ポリヒドロキシ
フェライトコア
封じ
汚す
並び替え
エルボ
ちょう
とう
バタフライ
##記憶
デイスク
アルミノ
靴下
支持力
ヘッドライト
ダビング
シャー
アカウント
伝わっ
ネーム
人形
上水
HTTP
主記憶
##グロビン
214
インターレース
ヒール
受発
臀部
ソースコード
輪状
ビヒクル
弛緩
荒れ
ブローバイガス
ガスボンベ
当っ
##ッカース
ウン
変電
頂角
オルト
上回っ
フレーズ
ネオペンチル
IO
Ap
いちいち
Alx
トイレット
問い合わせる
歯列
##72
ホスフェート
計算方法
##ティー
来店
あく
##事態
相関係数
手ぶれ
##イブ
##ition
##チス
シェード
向う
##期的
##69
Sci
受用
パッシブ
一義的
音叉
なん
クレゾール
ETC
押印
陳列棚
先導
ウレア
隠し
立っ
##パーオキサイド
保障
キャプチャ
統計情報
商店
##ectr
A型
トランジスター
一気
徐冷
余儀
捻り
穀類
##ブタジエン
155
ふた
焙煎
同色
体型
溶質
##フロン
ケータ
赤道
地名
リター
吹込み
けれど
フロントエンド
アスパラギン
理論的
イコライザ
濾液
リムーバ
##igital
脱色
##Ph
圧潰
ズボン
mV
巻き取っ
併せ持つ
ドラッグ
外蓋
##レッジ
視力
カスケード
卓上
バリスタ
502
ガウス
浮揚
減じる
維持管理
来訪
1050
傾ける
略記
デフォーカス
出退
##段階
立案
行先
供し
##終了
韻律
植木鉢
リンパ
完結
割り付ける
免疫学
貸し出し
Thr
0010
##ラシ
レーキ
粗く
喫煙
後席
柱材
##セーフ
ポリメラーゼ
トリエチレングリコール
##ッカス
多型
ボクセル
陸部
屋根面
AlGaAs
ドアガラス
1人
スメ
艶消し
競争
受渡
##メリ
##こり
##むら
セッティング
敷居
アルカノール
間違っ
##飲料
汲み上げ
ジャンクション
橋桁
##開発
切羽
多目的
柱脚
ブチルパーオキシ
偏光面
液状化
リンゴ
講じる
以っ
査定
127
Rs
しごき
付す
Id
懸架装置
プロジェクター
連なっ
##ファー
ガルバ
向き合う
TB
セミ
コンロッド
遠心分離
メインメモリ
所在地
たばこ
VA
ひも
関係者
Hv
ダイバーシティ
ビッカース
エクステ
フラッシング
振替
スタイ
PLC
外的
減る
##アセンブリ
スライディング
合わさ
入水
##ッショルド
皆無
瞳孔
送入
##ナント
貯氷
従前
判断基準
小口
直感
ピペラ
駐輪
端局
均し
写し
グリシン
漸減
En
生コンクリート
Et
進行状況
Ho
末尾
驚く
組込ま
しみ
可塑性
入れ替える
店頭
紙幅
鉗子
綺麗
##アッセ
TF
ターンオン
引数
ソルビトール
組立てる
裏板
考察
Webサイト
ガーニッシュ
言及
液漏れ
長期的
油溶性
昇降機
保険料
またがっ
ガセット
外挿
踏切
##ソース
ふっ
精留
販売価格
腐蝕
##ニクス
流し込み
アー
踏力
噛み合わ
##IF
##ian
入室
手持ち
ハンドオフ
花粉
インバ
DLC
##Sb
登場
スナバ
装用
です
##tocol
アセン
多発
社員
胸部
1400
商業
パンタグラフ
##変更
スキル
##ルトリエトキシシラン
終わっ
背景色
加盟店
推薦
ともない
各階
256
##ッブ
家庭内
体格
混載
圧制
鞘管
前景
天秤
損耗
##yp
##外し
傷つけ
ターボチャージャ
不利益
##だれ
か所
##olog
有っ
冷却塔
物干し
##コッカス
##ショット
あつ
酒石
##デート
まとめる
##ホスホ
歯先
道管
ニップル
初心
もとづき
主情
##ルツ
自宅
ポリグリセリン
装飾品
隅角
食器洗い機
##グリセリド
グレード
具体化
収益
大がかり
いろい
##art
いろいろ
採ら
##ショニング
白熱
アジャスタ
シャント
ピリミジン
NTSC
人造
糊付け
巻き込ま
ホームポジション
倒し
慢性
押し広
標定
黒板
文法
体軸
##タケ
##ice
手数料
LNG
融通
ページング
かんがみ
変曲
##チェック
捺印
##ビリンス
白紙
##自動
ドアトリム
ターンオフ
次巻
1012
床上
売却
提出
ISO
受講者
線引き
デューティー
ゾルゲル
##コンベ
ラビリンス
##契約
倍速
寒天
LB
起し
移動型
ジアリル
はみ出す
##アナ
培土
オル
##58
噛み込み
サイクルタイム
レター
櫛形
##プロピルトリメトキシシラン
内部構造
ストローブ
##ショナー
初心者
返す
##レージ
##メモリセル
関わり
外熱
デバイスドライバ
##てる
##積み
穴明
保管場所
##ication
不可視
転圧
##ゲージ
本部
ロイコ
予知
刻々
電灯
手配
ウェイ
開栓
伸び率
初期段階
歯数
危険度
ヘルプ
複層ガラス
SOx
集配
氷結
サブピクセル
投薬
ジフルオロ
薬効
不変
合格
湿し水
合力
そっ
押える
商標
##洗い
ハンチング
ディスペンサー
課題解決
メート
##支援
意外
##ロイル
Vol
時又
ニック
##もと
プロセ
航法
2500
運転手
下半
アッシング
許す
##除け
合算
サイディング
折線
ホログラフィック
切り屑
HFC
ドーナツ
かた
部署
テーマ
脈拍
真下
ウェッジ
テンキー
廊下
##サーバー
##ハウジング
##our
スプレイ
懸吊
役務
バチルス
##オネート
キュリー
おこなわ
ジフェニルメタン
拮抗
アルミン
求職
通板
管径
要部
##リオ
折返
##io
床用
インヒ
支保工
装荷
ホテル
215
OSD
届く
ナイト
足裏
アレルゲン
バウ
真菌
スタンパー
オキシアルキレン
##73
顕熱
スクイズ
フィレット
##トリガ
専門家
操舵輪
カムフォロア
エチレンオキシド
打ち消し
夾雑物
ずり
捉える
マッ
失う
デファレンシャル
シーケンシャル
美白
RI
加工糸
##グリシジルエーテル
##ジニル
##ベンゾイル
びん
セルアレイ
請求書
311
血糖
##ast
糞尿
DF
主薬
##63
Un
主桁
極薄
明け
##変異
突然変異
コージェネレーション
##ond
洗い流
印刷結果
##モグロビン
コードブック
##コントローラ
鈍角
油面
アキシャル
##ゾリル
不溶化
アデ
埋立
モノカルボン
ヘキサンジオール
BN
630
テルペン
書込ま
着地
エイ
切り替わり
惹起
相反
売り手
造型
抽象
傾き角
刺し
ドライヤー
##アルキ
##ローダ
直感的
天地
シクロデキストリン
正接
##ユーザ
着床
##ビュ
MEM
シャット
アルブミン
出光
水力
蛇口
不測
座っ
##キュー
あいだ
対角線
イニシャル
斜視
610
だっ
揚重
割り出し
##ョウ
ボールネジ
鑑別
##チルト
凸凹
Cn
引き裂き
ガーネット
介護者
架線
肌色
ドロー
凹ん
##ニヤ
視覚障害者
平角
正立
確認方法
今日
軽質
テフロン
畳み込み
版材
ラケット
高額
インスタント
肘掛け
di
折れ線
茎葉
個有
柔らかく
ゲスト
##経済
雨樋
##ブレ
##証明書
HCl
文脈
食肉
##PE
実効値
かね
ベット
DV
1級
発達
不許可
叙上
ML
わざ
キック
歯磨
上手
壁側
風洞
目付
張り付け
ショップ
重層
##300
##erm
伸展
不経済
##62
トロリー
ホーニング
コーキング
ポーズ
実数
##ロピー
前傾
物類
真性
##バーゼンス
時限
到っ
ファー
能動的
ブリーザ
##bps
アロイ
濾過器
OL
燃圧
中芯
押し当てる
電化
シリコンゴム
TL
LS
リパーゼ
スロート
##カップ
作図
染み
TDMA
知的
##フィング
##トライン
ab
##リヤ
速さ
宿泊
##ex
フェッチ
ブースト
角錐
分光器
印可
確度
然し
##テッド
DO
##ain
拡がる
歯状
乳幼
乳幼児
飲用
##写真
##口座
縫い目
負イオン
隣り合っ
##ゼル
浮い
アクチュエーター
炭素鋼
過多
管腔
シグナ
EO
##エチルエーテル
悪かっ
依れ
据付け
145
ボールベアリング
縁側
目立つ
フェール
エンジンブレーキ
爆薬
サウ
MnO
##レタンプレ
##acter
##言語
ニュース
物性値
エントロピー
ディスパ
添着
割当てる
かまわ
スタッフ
限外
クレードル
叩き
セキュア
不感帯
外容
撚線
FERM
使い分ける
血小
血小板
創出
振れ止め
転落
瞬断
移す
##ジカル
親展
チョコレート
アウトライン
##植物
ジオキサン
Hc
ハッチ
ブチルゴム
指し示
##ブリッジ
折り返す
トロン
Cp
非常時
##はや
バックコート
汎用的
元々
ショットキー
ナース
判る
線画
ウレタンフォーム
派遣
Kr
地磁
地磁気
ガスバーナ
とれる
にじみ
幕板
##ジノ
スパウト
生鮮
エンハ
代理店
鋳込み
着手
ナノチューブ
##レーザ
HLB
止め輪
ns
##つか
Pyr
寄託
動輪
テンプル
質感
##ウエイ
クラスタリング
レンガ
突き上げ
まったく
土圧
144
ワイパブレード
##コリ
バスマスタ
回り込み
呼び出さ
ゼリー
高位
##メチルジ
強風
縮み
載せ台
##ort
頭皮
巻き線
百分
飛び散
EB
引力
430
ac
逆側
跨い
ハイパスフィルタ
中敷
半透
もはや
##施設
覚醒
##バイト
パネルディスプレイ
逃げる
ポア
凹版
耐火材
学校
無数
正方
OCR
絶縁油
##コネクト
捜索
ファジィ
##ジュアル
錐面
品詞
納豆
配下
##コピー
引火
辺縁
##カス
音域
金属性
ビジー
移る
吊上げ
mN
痛み
行き先
気力
航跡
##メチレンテレフタレート
on
スクリュウ
チーム
真正
ウェザー
見積もり
処分場
##フィリン
誘導路
ブドウ
##溜め
当ては
アゴニスト
##焼き
突き出
##レタンプレポリマー
変成器
ローブ
グアニ
カードシステム
NCO
ピペット
デシル
##プス
外さ
移動情報
穴明け
リードピン
Digital
いた
侵食
抗生
陥没
アクセサリ
MM
更生
運賃
##わざ
480
合理
SEQ
拡げ
新しく
トリアル
ステアリル
イング
##illus
クロミック
みなす
域外
海中
##ントン
集計結果
ファイア
事業所
土留め
不斉
##ビティ
もともと
BG
##チケット
楔状
リフトオフ
ベーク
プリン
##エット
横溝
回答者
水密性
エアギャップ
##ゼイン
わざわざ
添設
多彩
網戸
キナーゼ
づらい
方策
横置き
積み重ねる
ポリアクリルアミド
滞在
音韻
##est
1020
キーコード
そり
内張り
立方体
反し
性別
残像
ファブリ
FL
メチロール
ドレッサ
打込
掻取
ドロス
照準
ベランダ
SCSI
陸上
##ボンド
百分率
出隅
##ハイドレート
枠組み
バンドル
装着型
Protocol
劈開
データリンク
ガルバノ
交渉
ケア
排気量
許さ
##シェル
ヘプタ
反比例
アイリス
プルーフ
濁度
草刈
##グレ
つづ
ケラチン
高架
マイグレーション
NF
##戻さ
水漏れ
ホトレジスト
MID
##タクチック
包絡線
方路
ヒアル
コンプ
施設内
##ライザー
吸い込む
ケト
出場
##シアン
鱗片
##Nb
環境変化
住民
噴口
受け取ら
計算量
環流
多点
シリアルバス
MPU
原本
213
025
ラスター
リムーバブル
鋼中
熱湯
圧力計
##Hg
仕掛け
雌雄
##ポジット
PZT
発信機
核燃料
ガタツキ
就寝
ジメチルホルムアミド
浚渫
ネジ山
打ち込ま
MIM
針金
貯液
周上
##そり
エタ
コーディ
リトラ
##クリロニトリル
特異性
レイン
灰分
網膜
支線
##ナフタ
キャリー
レーザーダイオード
省資源
ASTM
LOC
多心
##計算機
足元
漸増
組込
めく
スキーマ
中段
混乱
ワイン
刻み
電子計算機
ファクター
描い
ばらつい
アプリケーションソフトウェア
##ンプレーティング
Vcc
収音
領収
##開け
すきま
香味
HV
潮流
##クレーブ
半波
アイドラ
突っ
アッベ
基本情報
アジャスト
ジチオ
ピッチング
ポータル
きのこ
##93
選手
オートクレーブ
##ゲナーゼ
リピート
挿す
プロセスガス
##シフタ
バリヤー
インドール
込ん
fl
##int
キサ
ゲッター
司る
診察
##事項
アポ
大い
225
技量
付け根
起泡
もらう
いかに
キノリン
インヒビ
オルタ
ソー
ニューロン
症候
不凍
熔融
乗り場
換え
atom
油水
レリーフ
施術
美麗
全面的
EPDM
不等
土留
擦傷
脆化
ソイル
鉛筆
届か
ヘイズ
VS
ねじ込ま
盛り上がり
システイン
ダウンシフト
直行
銅板
白線
中水
在る
ポリプロピレングリコール
外刃
セルギャップ
本人確認
エアロゾル
一挙
木粉
ばり
局在
覗き
張り合わせ
先鋭
##クロミック
ファースト
工学
ダイポール
パーティング
注釈
血中
##ノエート
リグニン
リジェクト
##ノキ
##たさ
具材
留出
ラクタ
中栓
非結晶
針先
ベクタ
上澄
消光
色むら
プロポキシ
340
アーマチャ
マシ
吸い上げ
火炉
##ile
##カビ
ロータコア
イソブチレン
##Sn
他部
どおり
サイクロ
モルホ
既製
##レンジイソシアネート
宣言
セバ
寝台
両極
トップコート
##コネクタ
実機
ブス
要せ
大理
232
日程
地理
転輪
##IT
ブランキング
面外
円上
中油
住居
オーバーレイ
136
アダプ
血栓
##ートメント
ディファレンシャル
LO
##ッダー
138
ワイヤソー
コンテナー
スモ
究明
大地
##ケール
##モノメチルエーテル
##チオール
ワッシャー
骨組み
あくまで
金融商品
心材
ガスハイドレート
##食性
し終
巻取る
年間
##リシック
病害
低位
骨梁
Blu
伸ばす
乗り上げ
to
ボル
削性
##セルトランジスタ
鋭利
##デック
##ジェント
ランドマーク
新生
##ccess
小売店
到る
めくり
オフフック
送りねじ
##ケティング
踏み板
##SIC
##メタクリル
燃焼熱
ムーブ
適確
atm
たて
ゲッタリング
ダニ
タイムラグ
加減算
##ビニール
##サーチ
ズーミング
画期的
損害
年月日
顕在
PT
##セメント
##縮機
空気圧縮機
末期
溝内
付記
精油
PIN
リペア
読込み
収支
モノリシック
心筋
すだれ
目的物
成熟
030
当日
ショ糖
れよう
ピロリドン
使え
##ピラー
大きけれ
リラクタ
細部
耐腐
移動電話
##ビニルエーテル
耐腐食性
男性
糖鎖
致命
ヘモグロビン
##IG
家電製品
間口
ティーチング
パール
濃い
点対称
##プロパノール
##形式
312
目次
来訪者
整地
##トップ
SOG
フライス
おの
プラグイン
径路
クーリング
出品
匂い
サブアドレス
##ホスフェート
ルーパ
局側
##サビ
軸封
プロペラシャフト
全身
かな
ステイ
タペット
ヒ素
術者
押しつける
##サブ
##メリット
インキュ
クーラー
仕込み
内皮
真っ直ぐ
フェード
クリーナー
垂木
管群
絞っ
ボールミル
噛合い
限っ
見合う
生産量
セーフ
手の
あらわす
白化
##ドーマ
不適当
点滴
##モデル
光又
##形態
ストレプト
dpi
然る
配当
一本
最尤
同心円
##こう
1018
ランキング
ゴムローラ
グリセロール
同位体
使える
154
渡さ
バーリング
計る
デオキシ
162
勘案
見切り
ダンボール
チロ
引き伸
見た
ネオペンチルグリコール
概して
活発
##ハロゲン
エアバック
原文
均衡
打ち抜く
医療機器
##アミラー
受け口
##プキン
Phe
アルミ箔
インスリン
原則
手形
コントローラー
先だ
サウナ
CMY
舵取
EMI
水没
送金
包む
##ジオール
削れ
運ば
セリン
ヘプタン
極値
ポリフェノール
がり
音程
##寄せる
mL
ショットキ
クロロホルム
##フォス
活かし
##ix
噛み合っ
肥満
受液
クロージャ
DN
カーバ
食い込む
ライター
st
包括
402
硝子
NOR
装飾性
見た目
濾波
路盤
##92
くり
トレハ
パンク
事後
##テニル
##ドリ
ナックル
嵩張
RM
不全
フィニ
カゼイン
銅粉
AO
糖質
板片
GP
申告
固有値
セカンダリ
##ンドロ
##ace
排風
周期表
##Pr
鋼棒
病気
音節
三原
EPG
ドーズ
Ia
nx
張ら
Gr
サステイン
錠前
011
身長
プリーツ
VoIP
ベール
##拡張
DUT
有用性
釘打ち
健康状態
ピック
機能拡張
1600
える
##フェッチ
晶出
大いに
遠距離
TT
スプリアス
基幹
移転
##ラテックス
##クロリド
720
爪先
高層
冷却剤
##ロラクトン
ナプキン
ヘアー
努力
捩じり
点列
##バラ
紙詰まり
跳ね返
フットレスト
出動
ひだ
乗用車
射撃
管側
Rc
申込み
色合い
暖気
白濁
コーデック
出来るだけ
六角
気性
炉底
##ich
削材
模式図
パルミチン
立ち上がっ
層流
風景
習熟
##ロニトリル
切離し
COD
くわ
ディジタルカメラ
ステッチ
はり
##ンタン
横材
Am
モデリング
アップデート
入り込ま
匿名
IB
製造者
ラット
型抜き
施工法
オニウム
SU
ハイト
捻れ
症候群
深刻
膨れ
抜け出し
右目
20000
特色
ディスポ
変曲点
主題
動き量
即し
ホルマリン
パッケージング
イナー
圧損
フォトクロミック
おさ
イラスト
非鉄
インタラクティブ
##out
##クリック
トー
##デッキ
厚板
足し
PDL
##付か
終わる
re
フライバック
アキューム
くらい
応対
ずらせ
プラズ
##スナー
エンクロ
チアゾ
スプリンクラー
進歩
歪ん
メモリセルトランジスタ
トレンド
垂れ下
##ペニル
##ブタジエンゴム
ポペット
エキ
踏ま
揃う
淡色
押し下げる
リジン
##ブチラール
効力
体制
##プレス
ほこり
脱毛
不正確
fs
##イミン
##なか
##タグ
##ニアリング
吹込
架さ
ATP
イネ
キーデータ
Ib
客室
創傷
伸延
突当
取消
残ら
540
Mult
##チェーン
曲がる
Proc
電子チケット
##ory
メールボックス
Pol
掬い
知っ
テンショナ
握持
161
成り立つ
エクステンション
PG
##onal
リザーブ
ホモポリマー
焼損
設問
評価項目
個人差
EVA
条件判定
##ard
スルホンアミド
##46
左目
取り巻
フォイル
熱気
アクセント
伴なう
イナーシャ
シャシ
バックドア
優位
発症
ベーパ
##実行
バーコードリーダ
アルファベット
##用品
トール
照らし
##アルカ
aa
##布団
ステイプ
包接
ギ酸
遠近
##軌道
フォワード
##ロブリン
直方
143
ヨード
コンパイラ
偏移
植物油
Vg
葺き
##ナト
技術者
今度
##フェノキシ
メートル
クロマトグラフ
環形
##ナット
上式
##螺子
加速器
多連
セルラー
スープ
浸し
肉盛り
トレハロース
陽性
買い物
衝撃波
不自由
アナターゼ
根本的
変形性
白血球
エコ
##フラン
アブレーション
中身
幹細胞
軸径
駐車スペース
仕分
ホットプレート
ルイス
プラズモン
編目
合理化
確変
サブワード
投稿
##ンジア
ベベル
305
シュレ
テルル
坪量
##メチルセルロース
シェア
天端
またがる
シーケンサ
6000
施用
##キャン
サル
ぼけ
廃油
アクティ
一因
後期
##プリント
CLK
##iens
qu
エレクトロルミネセンス
強酸性
受託
引っ張っ
貝殻
ヘプ
##ウエイト
##マット
an
斜辺
点在
##ボンディング
却って
防カビ
アクセス時間
包み込む
グレン
原木
富み
ジュール
FPh
##たい
どん
有毒
ピグ
受験
軸上
溶体
主導
##シクロヘ
底蓋
バイス
dm
利用履歴
620
ジイソプロピル
##ろす
##ソウ
レゾルバ
ドアミラー
目隠し
不可逆
芝生
進行波
本線
平型
健康食品
珪藻
線維
狭隘
ハロアルキル
要員
エゼ
台枠
##グロブリン
賃貸
##ルフルオロ
脱臭剤
極小値
テトラメチル
ジスルフィド
##メタノール
アルゴンガス
改行
数え
ファイルサーバ
コヒーレン
デキストリン
ミリス
エレクトレット
水膜
報告書
検眼
臨場
##able
##リアミン
Os
絞ら
小便
防黴
保管庫
調速
光電子
アドレ
トライ
モン
絶え
製造業
##テト
##ショナル
糸通し
PTO
ストッカー
混繊
スライドコア
頂上
エンクロージャ
沸き
早める
##リム
耐油性
Ile
見つける
いわば
研掃
電器
オク
Sh
袋詰め
公称
糸切れ
エンジニアリング
##バン
タッピング
被う
醤油
##ンネル
飽き
LL
文字種
互い違い
##シアナート
トリメチロールプロパン
トコ
閉扉
TOC
調理室
突発
スレッショルド
背側
黄変
##ジア
片端
弾み
ユーティ
往動
配給
淡水
ネマチック
マルト
斬新
##CP
擦過
イオンプレーティング
勧告
益々
逃し
取引先
##ジッド
エディ
スイッチバック
折り重ね
死滅
煙草
育毛
クル
体質
オンスクリーン
転向
冶金
##ij
##エレ
絞り込む
1015
なだ
用件
動かさ
買物
##42
Td
魚肉
切り替わっ
後流
立体感
ダイヤフラム
使い分け
受発注
プロテクター
cl
袋内
中圧
延いては
奥部
輝点
双極
テーピング
真直
半身
続き
NS
##カラ
##上がら
なだらか
##ニリン
ワープ
##ゼット
スライム
ヒアルロン
劣っ
自律的
216
狙い
加わら
スプリッター
モジュラス
始まり
拡声
弾丸
食料
##サム
無料
貫流
求まる
##じん
ベイナイト
配電盤
##71
##窒素
アクセス方法
At
心理
砂利
##バクテ
灌水
当て板
BR
各室
病変
真珠
##ower
##キット
##ずと
##ーシャル
ブスバー
CAM
パーフォ
保温性
オルタネータ
ヒンジピン
等級
刷り
備わっ
##ストリーム
CW
##trol
クレーム
ライブ
旋削
触感
##アイス
キノン
果汁
各項
づらく
戦略
##aph
しろ
mmol
カルコ
臨場感
放射能
マークアップ
クリヤー
電磁的
デスクランブル
ベンジ
##oo
Gln
なめ
##SM
気化熱
丸鋸
応え
汚れる
しれ
滑性
登録方法
めねじ
整える
母音
##レンサルファイド
アンモニアガス
AG
##まい
掛け渡し
##キシレン
ムー
結ば
穴径
##work
小動物
##マティック
粘結
レンジフード
沈着
##ーシス
Sa
ウレタンプレポリマー
##荒れ
先願
##トルク
くじ
留守番電話
制限時間
##だす
遠心分離機
実部
ねじ込む
仕口
一元管理
合金鋼
大理石
RL
ロラ
楽しみ
電飾
ユーティリティ
引っ掛かる
153
インテリア
労働
給糸
当否
Hom
##ry
事務所
誤認
フォー
防蟻
サージタンク
オレンジ
##49
余弦
見つ
間柱
頼る
早め
窯業
メルカプタン
混じり
ポリトリ
色数
##出せ
恒温槽
バフ
目立ち
力源
##ヒート
足踏
##ッシブ
二重
全自動
OD
地上波
KHz
アナライザ
アルギ
弱める
製薬
釣針
サッシュ
雲台
なかなか
##rg
立下り
コリオリ
除草剤
セリ
均圧
感染症
On
ジオキソ
SIP
半製品
防げる
緊急事態
##シティ
フルオロカーボン
##ラリ
##キャラクタ
救助
ホイ
跨る
冷え
##ology
MEMS
いくら
振分け
ホモジ
BM
裏地
HIV
赤血球
つぶれ
販売業者
マンション
載っ
バイオメトリ
Vf
背負
線対称
層数
ベンチュ
管外
吸い込ん
サブネットワーク
不織
債務
下穴
野縁
巻く
壊れ
捩じれ
セキュリティー
メーター
戸車
バリュー
セレーション
最小単位
帆布
##ストル
慣れ
クローズド
モザ
クロマ
上がっ
##おむつ
Tp
銅線
アリーレン
顕在化
尖っ
開鍵
##yd
##リュート
折れ曲がっ
だれ
##残し
形体
指示器
下手
娯楽
##eth
まくら
##ルコン
High
親子
工面
チェックポイント
VH
COOR
ノニル
持上げ
##53
アントラキノン
キナ
菱形
生長
退色
検査項目
ポリビニルブチラール
ポリカ
##ッセント
減水
##VI
仕訳
薄形
財務
のびる
アクチ
##ブラー
イカ
圧し
##バリー
集まり
##43
組合
##ous
802
##ロージョン
プログレ
プロパンジオール
もとづく
##かれる
##光線
##揺れ
箱詰め
##ンドローム
クローニング
ヒータコア
上半
##ステアレート
前身
ディーゼル機関
弱酸
当事者
ガム
モタ
##ヒータ
帯幅
観光
パーフォレーション
賦形剤
集荷
##なみ
具現化
LUT
bit
抗力
オフガス
押出さ
ファイアウォール
スコ
Lu
ページャ
観賞
狂い
帰線
ニコ
ミドル
##フェラーゼ
バランスウエイト
##ギュレーション
データ化
対象外
ポリアリ
##nal
フォトニック
サービスマン
てる
採り
突き刺し
読書
##リセット
引裂
エナメル
清澄
060
プラネタリギヤ
##脂肪
キャスク
布製
苛性
ドラム缶
キーレス
出向
##すい
水切
ブレーキレバー
香気
潰し
海上
フレム
ディストーション
調子
インテリ
絞り値
Pi
クランクピン
記入欄
##52
殺虫剤
Vi
EX
生理学
グラデーション
インヒビター
VT
##範囲
深部
Ad
遭遇
##PSK
SG
ブレーキディスク
プレイリスト
アラニン
連写
##ニトロ
GA
##ジェン
火薬
フィー
ラクタム
表示形式
系内
評価基準
GF
紙おむつ
dyn
##エッジ
健全性
##指定
サブステップ
BH
##レイト
立てる
切ら
いけ
専ら
枕木
配色
添え
梱包材
過渡的
単品
##ファインダ
申請者
扇状
訪問者
カイ
ヒューム
末梢
リアクター
基数
相同性
交通量
沸騰水
##エチルアクリレート
##ニューレ
弾み車
##89
裏蓋
発光器
清涼
##Br
ジオクチル
処方箋
実像
訳語
##オリティ
決裁
外型
##チタ
歯牙
母型
##OF
デリバリ
適時
撚り合わせ
抄紙機
浸食
##ンプロピ
Asn
0230
法則
同伴
##起し
実績値
数時間
MH
##評価
致命的
消波
考え方
##EF
ペルフルオロ
175
ジャンパ
伝っ
##オキサン
##ンサーバ
眼内
##フェニ
アライン
トレス
有す
ミリメートル
楔形
限定的
##etwork
ポリスルホン
HST
価数
揉み
ジルコン
##ular
mmHg
ドライアイス
##ment
したがい
満足度
##ペンタジエン
ウッド
##合金
仕様書
引っ掛かっ
反射材
アンダーコート
##ウンス
シンドローム
スタイラス
##ハング
居る
##eV
口縁
ヤード
読影
核種
遅らせ
適用範囲
ライク
流し込む
糸巻き
脱水機
Access
車上
洗髪
使用料
ジョイスティック
ER
量比
224
カニューレ
シンジオ
キチン
隠す
##ンプー
印面
妥当性
くわえ
人件
細溝
##III
ちなみ
アジマス
サマ
糸巻
##AS
胞子
デコーディング
CON
ESD
ダイボンディング
##まか
ポッティング
ポルト
Is
窪ん
モザイク
aSi
いたずら
RR
取り囲ん
ビオ
握っ
数学
濃厚
de
フェニレンジアミン
判読
留意
タイト
間取り
園芸
肌荒れ
##アクチュエータ
##ops
馴染
512
##トープ
マーケティング
1001
##たき
放射率
##ボラ
どんな
はめ込み
つかみ
内釜
##ドラム
端数
アダプティブ
ASIC
生息
sap
ディスクリ
冬季
パラメタ
##ダイン
De
籾殻
エアポンプ
未登録
最後尾
レーヨン
肝臓
##cr
1017
0050
ヴィ
Rmax
フィッティング
抱き
mW
抜去
ステンシル
三脚
シクロヘキサンジ
##テスト
取入れ
##タブ
パワーオン
ソーラ
##スレ
クロスバー
cps
回部
相間
意見
人件費
メチ
潜水
例文
テクスチャー
Vt
##揃え
食味
キーフレーム
ハイブリッド車
動植物
中蓋
捕ら
省ける
サムターン
##47
弁口
平準
陶器
013
累算
該部
凝集力
ご飯
##倒し
##ークル
帰属
のり
AN
下着
冷や
##キャパシ
1013
ポイズ
アプリケーションサーバ
プラスチックス
発色剤
継ぎ足
##バクター
サブブロック
レーザー光線
GL
##リブン
##マンガン
給与
##ンダント
ハイドロキノン
プレコート
錐体
そば
残響
なじみ
レドックス
エンジンオイル
FIR
会計処理
減容化
##デジタル
発煙
野球
骨髄
ポテンショ
空室
自乗
勘定
スムージング
耐震性
##クティング
途上
##ual
身体的
##cal
健常
覆蓋
切手
##ロウ
決済方法
口座情報
炊き
##quence
MIDI
ピペリジン
暖め
Po
ポルトランド
控え
小球
熱圧
血行
##ak
着信履歴
止まり
組織化
岩石
片状
略々
不満
##スルホキシド
昨今
##割り
209
勝手に
ノール
##アルキルエーテル
シルク
157
浮き上がっ
受取る
転用
##ゅう
短期
Pl
##触り
立ち上げる
##キシン
##こぼ
リジッド
エアバッグドア
至り
対話型
動向
演算子
ラー
生産物
##ナム
d3
報酬
等距離
じり
##レンプロピ
601
波打ち
##enc
黒化
エロージョン
sapiens
Nat
象限
ブリスター
Pc
ネオン
異臭
se
き裂
ベンダ
外套
##アント
##アーク
##ポスト
##56
CeO
カオス
##共有
情報共有
##シラザン
湯量
スピニングリール
フェロ
ルーメン
散在
コンフィギュレーション
インテリジェント
分取
ケス
献立
頭出し
Tw
##86
欧州
目指
引き抜い
##Ta
主表
肥大
書か
実験的
##ペルオキシ
1994
外圧
プリフェッチ
チアゾール
薬理学
業界
##end
起振
振る
SEM
望遠鏡
線型
コンバーゼンス
コンビニ
様態
長溝
##ミティブ
オーバーハング
ハイドレート
裏当て
ウェビング
セシウム
##立てる
セント
コンベヤー
積荷
ピアス
折込
##こむ
##クスト
##デア
LPG
漂白剤
ヶ月
##ミネーション
分極性
ギヤセット
オキシダーゼ
##ヒドラ
レーダー
Vr
前扉
済ま
##ウンタ
込ま
ダイマー
##調整
ロックウール
GR
飛び越し
弧形
守る
##ミキサー
##ンジアジド
皮剥
ポルトランドセメント
ベタイン
変電所
バナー
木片
プローブピン
リフォーム
カムリング
米粒
可燃物
アセトニトリル
ワードプロセッサ
スプレーガン
デポジット
##ver
光度計
気水
錯塩
バイオメトリクス
平準化
アーカ
##41
##揃い
二重床
図上
取り出せる
インターポーザ
##生活
電磁気
保湿剤
溝蓋
おこなっ
流れ込み
写り
##oph
##iana
麺類
プログレッシブ
プリミティブ
ポリメチルメタクリレート
フライト
##ハイ
##ナイザ
演奏者
補聴
##リティカル
オンデマンド
シャンプー
入力欄
サラウンド
趣向
スペアタイヤ
アクセサリー
MN
旋光
フルオレ
con
依り
ブックマーク
##おの
無意
責任
リチウムイオン
キャリヤー
電子決済
重点
治癒
ドリップ
尖端
指し示す
k2
降雪
プレチルト
選曲
リン酸化
当たら
痕跡
電子証明書
ディフェクト
165
おのおの
##セプター
積重ね
##デコーダ
側室
ショア
バリアー
##acillus
FeNi
プッシュボタン
陰性
##IL
乍ら
木口
砂糖
変更方法
プリント回路
プリント回路板
緊結
線香
Tyr
残額
##スカー
前身頃
##バクテリウム
検証用
チャープ
##フォースメント
三重
生き
##あい
緩慢
代り
死角
##ィール
##ファスナー
デカン
WL
リフレクター
オキセ
ポリアリレート
対訳
費やす
はっきり
適温
整然
湖沼
なめらか
゚の
送光
オーバレイ
3m
##opsis
ノウ
救急
押上げ
間歇
##ann
正対
等高
パーシャル
基き
パテ
グアニジン
##87
ポリトリメチレンテレフタレート
##ナイザー
押上
近付ける
引き離す
ポル
手入れ
ゴムラテックス
変量
趣旨
走行性
サンルーフ
照らす
スプレッダ
リチウムイオン電池
1800
ピロール
溶化
msec
##ros
リンギング
不凍液
EST
##500
想到
個体差
堆肥化
合併
コンタクタ
OB
テレス
気づ
部面
ステイプル
グルーピング
主動
記さ
水用
780
チェックバルブ
##リジニル
BF
ブローチ
ペイント
計量器
オーバラップ
マッハ
クリティカル
ベスト
##ock
エミュレータ
##キャパシタ
##ACE
##かせ
可食
##ord
不揃い
納める
処理状況
LA
NiO
らせん状
ラフ
備わる
##フロロ
郵送
滑ら
多々
##コース
##ヘルツ
ガイドバー
ポリフェニ
##ite
DT
漬け
トリアセ
生石灰
影響度
ソーラー
言い換える
FG
照灯
直噴
差し替え
内鍋
跨がっ
アニリノ
スミア
サブルー
exp
油槽
SOC
航走
焦げ
せき
節度
##滑り
送受話
フューズ
##慣れ
クライオ
ゼン
鉄製
##よそ
##フィニル
長期化
扱わ
##ミリー
##ision
人々
深層
ウォームアップ
避雷器
あける
湿分
##ープリ
排尿
軟骨
おおよそ
290
疲れ
製鉄
##モー
模し
##生地
デキスト
##CC
アイデア
タンニン
ファイバグレーティング
ピラゾ
技能
湯沸かし
確信
##ジアクリレート
アキュームレータ
シフター
通溝
Low
台状
シーツ
色々
##ぐり
上向
注文者
is
モジュラー
酸化銅
##ールス
評価点
取り巻く
DI
相関性
チエン
カーネル
鶏卵
中央値
固め
##テリアル
収入
内また
クサビ
ナノメートル
双眼
##タリング
申請書
間違え
ツメ
440
土間
カルボジイミド
SIR
軟らかい
養液
アイアン
連なり
ジビニルベンゼン
消え
低炭素
範囲指定
ヘリウムガス
IM
手押し
飛来
BOD
##メーター
菌糸
##マール
免疫グロブリン
アンプル
押し広げ
杆部
アルギニン
皮下
CNT
ゼンマイ
毎日
エネルギー源
ポリアクリロニトリル
縦材
使用料金
顔写真
ウオーム
アーティ
同量
熱電子
ベータ
エンドユーザ
1993
棒鋼
境目
自社
色分け
さい
治療効果
NBR
雨滴
フイルター
押下げ
打ち込ん
##コータ
2002
レベルシフタ
発表
トリエタノールアミン
倣っ
不慣れ
分裂
シロップ
通線
見せる
ユーザ名
体調
レターデーション
##かみ
マグネタイト
レザ
膨らま
置き台
ジプロピレングリコール
アナウンス
サブルーチン
被服
##フェロール
怪我
フォル
ニコチン
##ネリング
インフレーション
膨らん
個別的
牛乳
黄銅
取込む
ふさ
ぐり
##かさ
未来
肝炎
##フラット
おも
Ex
アップリンク
打ち抜い
ジャー
両眼
美しい
切り欠か
PbO
交代
引取
##ang
パン生地
##アセチル
支配的
明白
推察
デジタル署名
レジストレーション
定圧
##先端
インビ
円すい
心拍数
腰掛け
共起
コンポスト
##プラズマ
ヌル
給餌
SrO
書面
##反応
肉眼
バグフィルタ
最先端
ガスクロマト
オーバヘッド
充実
チラシ
降ろし
硼酸
排泥
ベンダー
硬膜
##エント
組込ん
きっ
nd
敷物
品番
##コンベア
円孔
ミセル
転回
##チアゾ
未解決
NaCl
##向上
化学工業
短所
撹拌機
引手
再調整
##AD
コンバート
抗する
毛束
引き剥がし
横側
そろ
使い方
##カート
##まと
イソプロパノール
寒冷地
多湿
モジュラ
科目
##ier
パワーアンプ
依っ
焼き入れ
1991
空中線
セバシン
ミリング
巻きつけ
To
Xe
##錯誤
試行錯誤
##セグメント
##モナス
メインテナンス
インフラ
習得
性格
クラフト
ヒドロキシプロピル
折り線
スルフォン
ネガティブ
品質向上
きる
詰まる
秀れ
稼働中
ノウハウ
出っ
ブラッシング
再計算
下水道
リビング
終了時間
SDH
カーバイド
##やく
##59
クイック
##ださ
フーチング
ホィール
トイレットペーパー
ギヤケース
脳波
Homo
生理的
ビデオテープレコーダ
枠内
表れる
CSP
通気口
面取
306
スプライス
ガスレーザ
##フェニレン
クロスコネクト
隔てる
せい
面接
##ッセル
補色
##インダクタ
熱流
モノエステル
すき間
永続
カーボン繊維
キャスティング
エフェクト
水砕
エクス
##下ろし
##ATA
調理器具
不意
二酸化マンガン
##83
チューナー
倒れる
再実行
解像力
エゼクタ
行数
##テクタ
##ソルブ
車台
集線
等々
籾摺
孔壁
インストラ
優しい
##チアゾール
##シダーゼ
ゴミ袋
小さけれ
版面
ロゴ
ラク
##Zr
##ビジョン
借り
正誤
紙質
引っ掛ける
##フロア
貯え
##イキ
ライズ
3M
メチル化
アルキルベンゼン
スイベル
ピペラジン
付する
縦板
型体
スライドファスナー
セパレート
赤目
##ナフタレン
##57
インプット
##スタック
拒絶
グルカン
BIOS
##シエーション
浮き上がる
ヘパ
イントラネット
自ずと
シュータ
アルカノイル
アクティビティ
インターナル
下壁
##浮上
磁気浮上
Gen
OPC
##マチ
最寄り
空胴
129
制電
補綴
貼合せ
造膜
クリンプ
ポリフェニレンサルファイド
バックシート
ダレ
押出す
篩い
貼る
710
乖離
過硫酸
縦糸
長大
1995
減ずる
DE
増加率
##emory
受診
科学
アフター
汚し
ハズレ
煮沸
防が
プラスティック
156
サイドシル
保険契約
1011
リラックス
##カセット
アドレスバス
抜い
到着時刻
アッテ
見開き
ハードコピー
移設
ポテンショメータ
主催
サイクリック
耐力壁
低湿
野地
ムーブメント
ベニヤ
繰返す
##ャント
APC
極く
##トラクション
冷凍食品
剥がれる
飛び出す
スイープ
後傾
サブネット
##リテ
植付け
壁厚
液溜め
メタクリロイル
突出し
タイロッド
壁間
##フタロシアニン
掴ん
標高
無かっ
ツイン
纏め
三原色
吊り上げる
中塗り
指示書
トリアルキル
大きかっ
##タルサイト
006
レゾール
資する
重水素
##ケア
栄養素
接触器
業務支援
臨時
ドッキング
シクロヘキサノン
入力作業
符合
サブビーム
けん
温暖
##iple
エチレンプロピ
親媒
ころがり
Col
放映
##ode
ウィスカー
PBX
茹で
出水
##チア
鉱油
噴霧乾燥
出窓
取替え
##ウェイト
精白
ガントリ
##ラッチ
##ブチルエーテル
平常
Rd
脚柱
天気
油滴
ドリブン
##LS
ダボ
##ベラ
運び
止まる
ny
収斂
##ごと
##ement
ノックアウト
##se
らし
レトロ
付箋
ACK
条溝
セッター
##Bi
##費用
プレイヤキャラクタ
着席
立毛
308
築造
面白み
ポリイソプレン
伝わら
##卸し
ステロイド
取出さ
予定日
重油
STM
許容量
ほぞ
間に
シクロヘキサンジメタノール
Xa
時間管理
個人用
ドプラ
リードイン
ベーキング
各回
燃え
MV
受話器
製品化
卵黄
ブチロラクトン
ストール
pol
机上
的形
##オレフィン
心電図
併合
果菜
見積も
上昇率
来場
作業量
反作用
##フォーマット
なくする
領収書
荷箱
裏返し
##tt
流れ込ん
投出
##ガキ
##ばら
軸外
##サミン
ジグリシジル
バージ
受水
液浸
引き抜か
Fr
##ハウス
域内
有彩
##ラクタム
vi
張っ
過飽
過飽和
曝露
##ING
たど
不審
極子
グア
##抜ける
仕掛
##ベンジ
##ゾーン
出玉
グルタ
##オリゴ
BT
匹敵
##ルホン
##エラー
ベースライン
ジアリール
##シアヌレート
リプレイ
非破壊検査
エタロン
スモーク
##カーテン
IS
ポリアニリン
連ね
kW
バール
覆い隠
出題
##ローディング
デフケース
マジック
強いる
テトラキス
Network
もれ
##さる
##ライタ
Hg
##切る
テスター
近付け
絵画
口元
商談
ピクチャー
絶対的
アミラーゼ
錐状
オクテン
ツー
入荷
局番
路用
埋め戻し
人工的
提携
緩める
##リヤー
LOCOS
##負担
生み
充電式
駐車料金
試みる
##実績
ジェットポンプ
ビジュアル
乗り越える
Oe
粉状
所持者
船尾
ポリアリーレン
親水基
ATCC
gf
おねじ
のせ
ハイイン
##GT
読みと
ヒマシ
NHCO
平方根
一元的
投下
釣り針
##ラスタ
安否
行政
シャットダウン
交付
FeO
UDP
##事故
覚え
##活動
生産者
人的
軟水
一杯
Nm
アセトアミド
ゴムホース
515
CuO
吐き
##くず
##アス
thal
仲介者
要さ
通行料金
止金
1992
無鉛
Cb
ペンダント
マテリアル
不法
足首
複数人
##向け
オレ
種菌
##ジェニック
##回さ
マンマシン
管轄
屋根瓦
和音
確認作業
VLAN
緊密
ビニルピロリドン
外国語
thaliana
10万
奪わ
残光
223
セルラ
圧締
##DA
シング
残滓
着物
防臭
及ば
フローチャート
エッチャント
用具
円管
用量
##スポット
突き出す
FH
##ゾースト
障害者
エチルアルコール
注ぎ口
218
##切れる
##フティング
##ライアンス
アゼ
Pers
脱衣
##アブ
##フェニルエーテル
Arab
接客
鉄塩
ハロゲンガス
プランター
ゴール
横ずれ
時計回り
生薬
##曲線
##ルスルホ
コアー
専有
即席
時差
##ik
1016
固形燃料
2級
ホルミル
引か
##ou
シーズ
漏液
利用客
縁辺
滑落
##ブラケット
過熱器
スルファモイル
##ノード
ホイスト
抜け落ち
磨き
##AL
施行
離さ
fr
期日
サイズ変更
入退室
##トロピック
つくり
Mol
ルチル
幅木
フェンダ
変光
キロ
右手
##レスタ
生態
空芯
quot
オーバーライト
角質
入隅
フレキソ
##idopsis
ジュース
キュア
鳥瞰
Arabidopsis
穴開け
マロン
頭頂
ペデ
等角
境界層
モノマ
仕入
##テライト
サブスト
底版
キーパッド
バッチ処理
##クロルヒドリン
シーソー
両脇
口座番号
直射
Da
コモノマー
温時
シグマ
吹出す
Electr
##200
ジッター
##サポート
メラニン
ピール
パーム
##サンプ
過酸化水素水
ボデイ
宝石
THF
マイクロスイッチ
##縫い
OCF
トリメチロールプロパ
インペ
テロ
投球
緩く
贈答
アンローダ
現われる
ぬれ
##ぼり
試聴
コネクティング
ベリリウム
ワーキング
##プリンター
組み換え
不足分
シェルフ
プロテイン
やが
整え
アデノ
数又
Pm
定性
##エタ
ブラジャー
シボ
##テイング
分包
1014
入れ替
FO
ルビ
エチレングリコールモノ
絵付
mT
##51
溢流
感電
給排水
容体
##ガイ
##ンジェント
パチス
留める
間引く
##スコープ
べき乗
COR
曲管
覆土
コヒーレンス
取れる
はね
抗張
横転
曖昧
視度
560
牽制
吹き込ん
構成員
焼酎
崩れる
エアミックス
##NC
クラッタ
散剤
##ンガム
興奮
前席
##スルホニル
チエニル
ミッド
ペデスタル
張る
アーカイブ
やがて
ヤシ
必要条件
約定
1989
##カラー
ディスプレーサ
##落とさ
ハイドロタルサイト
教習
可搬性
丸形
トレーリング
ラセ
人事
メイク
パチスロ
経由地
ISP
フォール
##アッセンブリ
シロ
先方
##リジル
助ける
##ミクロン
バンド幅
蒸留水
VOC
プリアンプ
トコフェロール
縦框
##me
##不可
必要不可
必要不可欠
255
ジメ
フィラ
反応熱
個性
##トランジスタ
結論
高血
##ics
トポロジー
アルマイト
ミリスチン
地方
##コシ
BD
ムライト
Tl
RAID
mJ
##チング
スピロ
コロニー
時間単位
合否
打刻
株価
弾圧
ハイパーリンク
EF
##クリン
パーマ
ランフラット
有音
1996
テロップ
##プシン
His
沈み
左方
頂板
ガス量
多様性
求職者
##モール
##シールド
大きめ
聞く
突合
##PI
荷崩れ
海面
ファクト
エリスリトール
取り去
アウトレット
自然石
パスライン
長短
##ケーブル
乗せる
減少率
##ホスファイト
トリル
低音
サイロ
甚だ
拡げる
##ランナ
##och
ガスバリヤー
LPF
白米
シソ
切削油
##セスキ
掛から
##り出し
Tn
ビシクロ
人気
##保存
映写
##アライン
##ジューム
ロル
315
船底
地下室
TEM
ポリフェニレンスルフィド
クエリ
コンクリートパネル
大人
畳表
蒸煮
着衣
重機
##61
パラボラ
##シクロヘキサン
あおり
##なし
システム情報
偏差値
##イツ
はさみ
MTF
是正
##パスフィルター
二水
肛門
フェリ
コンバインド
ヒマシ油
Control
##ジム
##吹き
プライオリティ
主室
TEOS
削ら
数100
滑る
見逃
##フェクタ
チタニル
血糖値
火傷
空港
増白
ダイプレート
内板
##フェルール
回り込む
ひっ
数千
##器具
##マイグレーション
##ゲノ
スクライブライン
910
171
##inding
##BN
##Se
##UID
一見
日除け
##メンバ
##ath
他者
スプル
溶損
サイトカイン
デマルチ
##識別
キャパシター
##振動
ジメチルスルホキシド
聞こ
##フルオラン
構図
VCC
スケジューラ
FPGA
手提
ロース
脱さ
POE
##ワッシャ
ADSL
乗る
アービ
KOH
AlGaInP
172
アクリロイルオキシ
手帳
エンハンス
万が
乱す
ターレット
万が一
定着液
ファミリー
乱さ
見れ
##ナフ
除湿機
試験データ
404
370
壁掛け
野生
##ジメント
キノコ
湯口
精算処理
Rn
てこ
味噌
ローン
炭材
什器
進ま
左手
嵌り
医療器具
浴用
溶製
テラ
コータ
滲出
ドアー
発着
発売
##ピリジン
##インターフェイス
デコ
##Ag
##つぶし
発想
脆く
ppb
VHF
アセトアルデヒド
食する
##チェンジャ
ドレス
浮子
プロフィル
組込む
Bl
留まる
太径
ポリメタクリル
キーシリンダ
##occ
切れ味
ばめ
出用
波高
AI
チェックサム
アミル
発行者
突き当たる
##rr
##エレメント
一々
上皮
常駐
陥る
##フォロワ
トレッドゴム
因み
ブシュ
乗務
アラインメント
##り込み
水溜
XYZ
NE
##DI
地金
創成
翼形
##RI
静粛
2001
Ic
炉外
バランサー
##ron
##NO
指掛け
狙っ
パタ
再処理
##チャンネル
如何に
苦痛
冬期
開路
間引い
蓄電器
紙箱
縮め
大まか
飲食店
食料品
ヒケ
バランスウェイト
架け渡さ
Rth
エピトープ
##ーダウン
マウン
直面
405
れん
配付
低次
温め
##82
エディタ
##ペーン
スート
論文
デヒドロ
燒結
幾分
強め
アドレス帳
塩化ビニール
コンベアー
プライミング
競技者
Lo
ラセミ
トナ
表装
##販売
##コンロ
##テンシ
atoms
正数
総計
合子
インペラー
弁当
濃色
皮脂
電磁場
グレース
嵌め合い
##シノール
##視的
ハイブリドーマ
モバイル端末
食い込ま
甲板
格納先
ロアレール
##インナ
##echn
低出
美味
ギャザー
舌状
フィルミング
書き替え
シールドガス
手洗い
231
存否
食い込ん
往き
仕切っ
ブタジエンゴム
インストラクション
##広がり
映し出さ
副次
品名
キャンペーン
洗面器
##マイド
混ざり
##91
詰め替え
噴水
給脂
送り込ん
プロピオ
よこ
特殊効果
ジブロモ
ヒドロシリル
角材
雨天
バスト
##楽器
Ab
備品
col
繋がり
カスタマ
犯罪
つめ
##チャンバ
エキゾースト
エピクロルヒドリン
子音
ディスポーザ
組織内
レゾ
開通
トランスジェニック
裏込め
ポップアップ
一級
##エー
##マウス
VDE
探し出す
他車
##ンドラ
フローリング
めくれ
重用
アレンジ
低め
アクリルゴム
管板
##るみ
グルタル
移し替え
魚体
##プトン
##シトール
定点
抜け出る
1990
バブリング
折込み
サテライト
レシチン
モップ
引き継
パルセ
リタデーション
Cys
EA
成育
変種
ワゴン
センサレス
##マネント
歩数
通ずる
##ホック
ウォブリング
発汗
インバーター
PPS
スリッパ
シリカゾル
はめ込ま
ウエザストリップ
メタアクリル
イソシアヌレート
MOC
アンク
リハ
見地
ジオン
デフロスタ
ローレット
Em
横揺れ
コギング
抗張力
1030
fw
同期機
光触
アマチュア
カムプレート
ログデータ
スノーボード
TG
差出
時短
皮膚炎
右方
出張
反動
現況
緑茶
##降ろし
fc
配糖
##センタ
感震
メチレンビス
細胞膜
掻き取る
片間
##ボーン
アポト
濾紙
アイス
##コハク
クラッシュ
炭酸水素
炭酸水素ナトリウム
尾端
上皿
車庫
納まる
ジアルキルアミノ
二等
二等辺
拘束力
ディテント
ラベリング
Dn
グレ
本項
差し引く
すくなく
インデクス
##ドラッグ
出物
プルト
研磨機
SY
かがり
鹸化
AY
ペクチン
トポロジ
アッテネータ
取替
望め
エンドポイント
##世代
FT
##にぎり
店内
ラーメン
##ルギ
HCV
事由
コンディショニング
多岐
揚力
階級
停留所
RW
キヤ
べたつき
フエ
連立
##テイン
##ブラン
すじ
極度
ヴィア
搬器
協力
ビットライン
せっ
両用
パスメトリック
吸入弁
骨部
##form
力点
##ストローブ
un
掴む
麺線
でん
##PO
AlSi
しゃ断
乗数
図表
##Pt
ストイキ
##iss
##ハン
コンプライアンス
##こん
長年
サイホン
欠如
基線
噴霧器
カーテンウォール
γ線
レバ
プロダクト
沈胴
持ち運ぶ
傷害
何故
畳床
アポトーシス
吸口
エキスパンド
OUT
ネガフィルム
イソホ
正確性
注油
##サスペ
フローセル
ブレイ
閉める
進行中
全高
要介護者
鎖交
アセンブリー
移り
容易軸
Fc
面白味
ナフトール
透明化
刈取り
すば
吹き抜け
レス
カイラル
スポンサー
色味
兼備
機密情報
業種
近付く
電光
##ey
れんが
em
ナフテン
EUV
利用形態
文字盤
乱れる
パーマネント
近時
協同
デスクトップ
入子
深夜
503
建築材料
裕度
##分析
NM
焙焼
アウトリガ
US
ヒュー
403
弯曲
グレースケール
暗部
ジシクロペンタジエン
##ニド
##トラック
石灰石
落差
##オーバ
通り抜け
Lab
Pn
法人
落ち込み
不当
テレセント
エリ
##CT
チャタリング
ドロップアウト
セロソルブ
受給者
ポジティブ
##サンプリング
招か
硼化
プロドラッグ
部下
ふっ素
イソシアナート
狭域
立壁
配膳
風上
レオ
底側
芯糸
ナンバ
青果
146
共働
静か
##セフ
CK
フェールセーフ
貼設
##種類
カルバゾール
結節
レジスター
混信
交線
蛍光性
天蓋
握る
切り口
当る
試合
隠さ
##オーバー
##まれ
ArF
操縦者
##あわせ
インクジェットプリンター
仕上り
強電
点眼
504
個体識別
波浪
アルケン
湿性
不適合
あき
開発者
Lc
枝分
ベヘ
展延
軽金属
137
温暖化
##ith
旅客
アドホック
SK
随伴
##ミッター
反っ
##ブッシュ
##パーミ
色ムラ
哺乳類
ウシ
ユー
持続的
正式
雌側
Personal
Mic
ポリシ
##コンデンサ
排便
Vin
水産
8000
電気かみ
電気かみそり
580
整髪
蒸解
ダイボンド
応じる
無限軌道
ワラ
リラクタンス
心棒
調色
ニット
嵌め合わせ
サブコード
足踏み
004
グリシド
##レーター
差別
スラッシュ
風船
排出物
1019
補聴器
投映
装具
フルオロフェニル
##治体
試験管
だろう
同質
傾角
下蓋
##折れ
マクロセル
外袋
##ブタ
##プロピオネート
エレクトロニクス
##ピッチ
膨らむ
ニトリルゴム
ダッシュボード
用水
インタフェイス
歯周
途絶
写し込み
抹消
線引
##シエータ
読みとり
ティルト
ジューサ
フィーチャ
ハイインピーダンス
ポリブテン
コンビニエンス
羽毛
排出弁
ヒノキ
大引
MOCVD
メタンガス
SDRAM
SBR
##ガラ
つぶ
ラス
カセットテープ
フルオレン
脊椎
介護サービス
鎮痛
フェンダー
パズル
横滑り
スタッカー
プロッタ
ボイル
紙束
割り振ら
##サスペンション
シェーピング
##クレア
##浄器
空気清浄器
波型
##葉樹
Wa
原子力発電所
しば
ジペンタ
オペレーター
アム
オーム
ドイツ
アルミニュ
##ジメタクリレート
Ma
曲名
熱量計
##シクロヘキシル
おにぎり
終期
方針
フイ
中部
倍し
着想
継承
菌類
バンディング
インバート
霧吹き
振子
TiAl
シアニン
圧する
飛沫
はさん
##もそ
##プリン
厚手
ストリッパ
そもそ
そもそも
ふくら
スルフィニル
縦振動
ウエザー
ワイパアーム
減っ
変更内容
トレード
カテキン
落とさ
化石
燐光
イグナイ
##用具
空き缶
チロシン
縦線
##平均
アジド
数種類
慎重
スケルトン
50000
レストラン
震動
埋入
原子価
暗渠
豊か
失効
Im
つる
##ッディング
前向き
かす
##舞い
リライト
問診
珪藻土
軟性
モチ
アセトキシ
集成材
乗務員
Rp
##ケージ
裾部
Appl
風下
ガルバノミラー
制度
MDI
貯め
クーロン
取り囲ま
再資源
再資源化
片寄
釣り竿
##立っ
貯蓄
##プチ
##per
たん
屈伸
鳴き
コラ
パッカー
ゴンドラ
伴なっ
012
ストーリー
ピストンピン
座り
GB
解決方法
コンソールボックス
引き取り
家計
##シト
ラッパ
ジッパー
Ci
中国
掴持
銀粉
##クレーン
引落
Memory
偏流
頼ら
防滑
##ーナー
入力ミス
横糸
クロロプレンゴム
上がら
##DS
圧縮器
イソホロン
フュ
##テンション
シンジオタクチック
巾木
アントラセン
干し
早急
##ザーバ
掻き上げ
あふ
ピストンポンプ
##リューション
大略
シューズ
##運用
ジェス
##ection
さや
コドン
##ance
原型
##ザイム
##モニ
ゴルフ場
##数字
差し入れ
丈夫
Pw
極数
フレッシュ
節水
ビオチン
ほぐし
1150
ショルダ
待ち合わせ
LR
リゾ
インターフェ
吹きつけ
丸太
管渠
シーラー
製作費
限る
取り引き
##リテーナ
乾き
相性
クラウ
ペンタンジオール
##もう
交直
国内
##自身
##ライナ
アルキルフェノール
作画
DLL
おこない
##っと
as
塩ビ
ツルー
主索
ゴムクロ
入れ換え
##ra
船首
継ぎ足し
メッセ
カーテンレール
メーク
各所
はじめて
重荷
うず
グルコン
拭き取る
退場
##ポリマ
小穴
エジェクター
ソリ
ツボ
コンクリト
キャリアー
至近
##構成
316
ショートカット
ファブリック
進相
チャンス
自分自身
突き合わさ
スペック
REM
支払わ
貴重
AlGaN
ネゴ
打点
##ッキー
##UR
セルロースアシレートフィルム
レビュー
流し込ん
レゾルシン
がわ
##81
放冷
レニウム
吐き出し
常態
麻酔
##クソ
Fi
##べる
トリオ
602
コンビネーション
表地
DPF
##出力
傾斜地
サッカ
生かす
ハニカムコア
アンローディング
デビット
##ジョ
惧れ
車止め
DVDR
##精度
外出先
主催者
リド
洗滌
##ージメント
##プレッション
##リーダー
COP
エルビウム
全国
除か
虚血
昇順
みなさ
Vref
NiFe
デフロスト
律速
Ox
油化
API
精神的
酒石酸
比熱
申し
着け
254
クロスヘッド
プレハブ
##ラント
##クロム
切取
##更新
AlxGa
ずらさ
ネイ
リハビリ
Eメール
テク
封水
ポリシラン
アイスク
下向
踏込み
Red
ヒダ
##角形
ファセット
サンプリングレート
重要性
フォス
##クレアーゼ
受入れる
毒物
嵩上げ
CY
中温
板屋根
倒す
質物
##イヤル
ヘルド
逆転写
押し潰し
登坂
我々
温泉
雄側
おける
ドアフレーム
地熱
定時
1997
甘味料
リーディング
イコライズ
散逸
pr
粘稠
小梁
ランタノイド
急増
腹側
切目
配糖体
ストリンジェント
戸袋
毎分
話し
釣り合い
強靭
釣合
中間的
ノナ
絵文字
追求
ジョセフ
ロイ
板取
ベルマウス
引出さ
dx
傷める
潰瘍
##立た
パターンニング
キューブ
1万
申込者
救出
空力
折れ曲がる
ピラゾール
ベゼル
##サミ
海外
縦穴
##ency
しばらく
次世代
焼け
##シロキシ
高血圧
一線
大別
水層
ツルーイング
1700
彎曲
清算
筋交
##ダンパ
毒素
用弁
装架
ブレーカー
ニア
##チオニン
脈流
すばやく
Lb
合計金額
炭水
集まる
プレーナ
QAM
トリメリット
nz
テプ
届け
向かい合っ
寿司
小袋
双眼鏡
##並び
保険会社
ヒスチ
193
主幹
同乗
熱発
シャツ
FSK
中仕
防風
和ら
失っ
非存
##pn
非存在
解か
##コロ
ウール
ハフマン
コンフィグレーション
nMOS
残数
水頭
##てん
DG
アマル
改訂
スタンダ
イノ
袋口
##財産
泡立ち
在来
ハット
ビューファインダ
クロリド
日常的
集まっ
高率
縮める
検索エンジン
積み込み
##作為
プログラムファイル
見込ん
##ネック
Pe
##pa
知的財産
Fl
包丁
和紙
ソータ
アガ
##ブチレート
##ストラ
1250
エアカーテン
##チオフェン
光点
貯蔵槽
トレイン
ビデオディスク
映し出す
rad
唾液
収まっ
遥か
590
こま
サポータ
DAC
Ri
講師
アマルガム
##プラン
##立案
計画立案
吊る
磁気力
研究開発
##occus
弱化
脆い
##Mo
ドラグ
シミ
##スタート
##ane
会議室
ベンゾイン
##マッチ
ふと
順列
筋力
HR
##障り
ガスコンロ
水平線
増やさ
185
ポスター
省い
台部
ジョセフソン
##erg
味覚
まな
風防
漏れ出し
##ava
##ナンス
英語
イチ
アザ
決まり
##降り
##シリカ
テレセントリック
車道
ヘッドセット
書誌
##ゃく
##ーラジカル
スタンダード
##トリア
##スタチン
アセトフェノン
反時計
反時計回り
備え付け
剥ぎ取り
マンニ
内線番号
まな板
WD
ピニオンギア
摘出
##ウマチ
さし
カスタム
ダミーセル
オキサゾリン
引き寄せる
##モルタル
##回す
締固め
デッドタイム
サック
各値
薬局
縁取り
##ステアリル
引き剥がす
##face
真球
シュミ
##mmun
止血
起源
途切れる
牽引車
保てる
貫く
##レイド
Mod
PEG
摂氏
芯地
フレームワーク
要領
水耕
プロキシサーバ
##IR
##eld
ペース
片持
シャープネス
便宜上
はがき
画一
ミニディスク
出席
単糖
フロアー
ポルフィリン
大域
異質
サブミクロン
満水
実写
省き
タンブラー
IA
バックホ
##ストア
##許証
紙押
##薬品
積込
##焼け
効用
無作為
適格
ロックナット
##EX
##レーズ
PTP
612
精算機
休憩
白地
問題解決
合成紙
テスト結果
ガラスラン
やる
ガススプリング
ヒドラジド
322
デモ
鍵穴
##テラル
音階
操作感
切り分け
切れる
コンサル
候補者
イニシエータ
##アセトアミド
侵襲
捲り
PK
100000
はかれる
バイアル
##ンタンガム
やり方
##TEIN
原油
##アクリルアミド
リニアリティ
リングギア
オキサゾール
VG
圏外
オンチップ
ブレーキドラム
##ギュラ
##こま
一時保存
半減期
主光
輪部
##ぜい
新旧
経緯
##バウンド
ジエタノールアミン
ファージ
消火栓
シュレッダー
凹ま
異常値
せいぜい
小切
ヘパリン
許否
##タスク
810
記憶メディア
一行
##引か
フリーラジカル
錆び
溝間
ロータンク
区切っ
アンドープ
口紅
バウンダリ
両替
五徳
高力
焼付き
接合剤
限度額
##スタミン
トリグリセリド
Chemical
垂れ下がり
ガソリンエンジン
次ぎ
Multiple
長円
厄介
買取
BPS
不合
##ザード
ジアゾニウム
正多
ドアハンドル
クリンカー
扉側
0130
目開き
##oh
##らせる
データ分析
煩わしく
EVOH
黒煙
##カント
トンネリング
Sol
##ジルコ
省け
##ooth
##ロアリ
端近
日々
##パソコン
指数関数
オーガー
多面体
ハート
内障
##パージ
ポッド
##ナール
sub
コンテクスト
アイスクリーム
ピコ
傷付ける
##データベース
成人
キメラ
副反応
悪性
発育
Hi
##anc
曝す
ハウリング
小室
苦味
##シリケート
VPI
向性
640
トレーサ
拡張性
軟膏
フラッパ
回り込ん
cN
削る
UHF
引き延
##ign
費やさ
日射量
歯底
##アリール
##化物
巻き込む
真贋
応募者
##モーメント
炭水化物
架し
煤塵
最適解
321
助け
キサンタンガム
持ち歩
血圧計
##り返し
緩ん
埋め立て
ギヤー
はめ込む
##メト
他局
糸切り
Vout
縦筋
ホイップ
平形
結紮
筆記体
副産物
圧痕
##タイザ
平成
規約
打鍵
引き裂
pl
前立
実在
等電
##エチレングリコール
フリル
ポリジメチル
巻き出し
##ary
##ideo
墨出し
引当
決して
履き
立上
速める
168
後ろ側
##BS
切り取っ
あう
LH
義務
取り囲み
乗じる
サブストレート
粗動
魅力
##モロ
##Pro
CMYK
締付ける
ダイポールアンテナ
やすかっ
右辺
着工
cm2
Uターン
##モルフ
きめ細かく
芯棒
Cy
##われ
##ブチレン
閉曲線
堤体
並べ替える
イント
##ict
##ダン
GaP
nH
掃き
精確
B型
##ブルー
##エロ
用金
尖鋭
##LACE
##UP
締める
deg
講義
ZnSe
##レングリ
IG
##ペート
コンピュータグラフィ
525
感熱紙
マネジメント
指輪
気付か
減色
下塗
開き戸
デジ
何処
紡出
シロアリ
単線
スティフ
コルク
アバラン
小便器
##ネラ
書き出し
搾乳
止まっ
灯火
泡沫
ピル
血球
##消さ
親和力
##ビシクロ
プレト
ヘプチル
取込ん
端材
メチン
##仕上げ
レーザガス
干渉計
集計処理
運行状況
証拠
システムプログラム
sequence
体脂肪
プロペニル
##br
見なし
差出人
コリン
併給
エポキシド
閉口
風雨
伝導帯
子宮
##ブロー
巻き込ん
小切手
148
Acad
谷折り
解い
切り抜き
滑っ
ASP
詳記
減額
目覚
Ms
弱酸性
清水
##フォト
くず
エストロ
投棄
販売機
癌細胞
ヒスチジン
嵌まる
##ジオキシ
ほう酸
ヘマ
輝線
右折
用例
細長く
##オキサゾール
故意
ねじ込ん
手提げ
SQUID
アルコ
the
コネクティングロッド
511
営業活動
綴じる
植え付け
##ヒンジ
取り扱わ
本当
踏まえ
卑金属
ブロワー
##潰し
元来
浸潤
BPSG
ローマ
ランディング
##ソリ
ノートパソコン
ちらつき
恒久
反響
下敷
アタック
やり直す
バルジ
フルイ
右上
##ピペ
##キシリ
##かえ
アジテータ
##ivision
##ンドープ
##センサー
リテーナー
社会的
相反する
同意
アパーチャー
トランスファゲート
再入力
##SF
##フイル
タンブル
逐一
サブアセンブリ
クリッピング
冗長性
##UM
選挙
引き下げ
241
巻軸
UL
##アロン
残液
非加
通訳
UP
心理的
GMR
en
かぎり
コマ数
リタード
依ら
CaF
チャフ
フラッシュランプ
ぼかし
学会
##NbO
ダイキャスト
164
私設
嵌まり込む
bp
向かい合わせ
おし
自然界
薄手
##セプト
強める
##yces
訳文
##セスキオキサン
##クリドン
呼称
明か
き電
Cell
Java
ケール
申込書
形容
マルチチャネル
消炎
##クレオシド
横棒
消火器
差別化
920
届出
313
##ッヂ
人感
テレスコ
##atic
紡錘
##運転
ウエーブ
サスペンド
Le
人参
組合せる
賭け
ウレタンゴム
ポリアミ
見通し
##クリーム
収量
コンタミネーション
kD
卵白
チャレンジ
つくら
トライア
##フランジ
Disc
Xn
勘合
定まっ
引き込ん
対称面
蟻酸
ヘドロ
鋭い
声紋
漏れ出す
メタクリロキシ
ベス
珪化
##スラ
040
濯ぎ
カプロラクタム
##トランス
問い
向かわ
インセン
##ロピウム
デキストラン
乾燥器
スクレーパー
フレーバー
上半身
バッテリーパック
送付先
アピ
オクタデシル
腹腔
cal
最深
見直し
##タス
樹皮
水洗い
プレナム
NG
濃く
間伐
アルコキシシリル
コンバージョン
夏期
大腿骨
かたち
ウイス
忘れる
縁石
570
ポリカプロ
サービスポイント
理論値
ヒドロキシルアミン
梃子
##コンプレ
ハース
##スズ
PBT
クロトン
VF
一貫性
##eq
加圧水
引き渡す
サイドギヤ
Dr
IX
斑点
##ケイ
菌床
##OL
摺り
禁制
醸造
テラヘルツ
左下
オブザーバ
##ピーニング
中型
型紙
##海苔
ルーチング
##塩素
el
弓形
##CF
PES
##サリング
頼っ
226
##itu
ロウアドレス
binding
残土
灰色
終り
アンモニア水
ティー
リウマチ
上澄み
二酸化塩素
流線
BGM
ソースファイル
入替
##オイ
リプル
暗視
デジタルテレビ
##ACC
Loc
無定
Pos
POP
カナ
##デセン
##模様
##フォリオ
ブチルフェノール
無定形
桁上げ
莫大
グラブ
欠く
ダイアログ
##チナ
シガ
側近
アバランシェ
氷塊
切れ込み
PPP
緩み止め
008
マシニング
横線
801
隔室
##イミダゾ
前出
噴き
PROTEIN
イグナイタ
##タリー
HIP
鳥類
ブロックコポリマー
つなぎ目
Mbps
受取っ
坑内
失透
まとまり
主局
粗製
趣味
スパナ
Dp
##ツド
インセンティブ
ルミネ
幅寄せ
WAN
ラテラル
##ロメータ
間に合わ
メチオニン
30000
ウォッチ
アビ
スプラッシュ
ボラン
##荷物
##arb
カラギ
戻ら
屋根下
##ucle
全員
USA
##ach
Ai
レフ
デフレクタ
策定
プロリン
##ニオ
ポートフォリオ
渡ら
ロービング
抜き取っ
地震動
ショットピーニング
開脚
##注意
##ウインド
XX
網羅
保守性
運用方法
701
PAL
ポリアミノ
まち
馬力
スマートカード
換気口
傷付け
コーナリング
ヘテロダイン
ライザ
DHCP
アニー
人口
被曝
##ステッド
投資家
洗面台
単票
Gro
釣合い
坂道
追突
ケラ
打音
直さ
##ie
充電池
財布
上腕
##標識
道路標識
はく
セチル
インターカ
スプルー
##ーシャ
オフト
残時間
内積
ex
送油
##オクチル
##カナ
前掲
166
ピンセット
##ラノ
受動的
##おい
中枢
##イソプロピル
ウェッブ
レーベル
濾板
麦芽
コンビニエンスストア
##gh
クランパー
ESR
シクロペンチル
中速
接ぎ
##ージー
修正値
ネクタ
##ファイバ
ウォッシャ
接せ
異極
##なれ
307
##セプタクル
チタニルフタロシアニン
##フィニ
給水栓
カバレッジ
荷受け
リンカー
マッチド
こんに
ステープラ
数表示
粒剤
魚礁
スキーム
WS
411
##ハイドロジェン
##くじ
ディスパッチ
314
##ark
下さ
化学薬品
##オー
近づき
リフトアップ
スピル
社内
主記憶装置
レゾネータ
ログファイル
デセン
ME
特化
エストロゲン
セルデータ
体力
填料
而も
番手
順応
##ップリング
描き
##ーセル
登録内容
ニトロセルロース
パワーダウン
タンパー
暖める
##バイナ
乾熱
セルスタック
防波
NaOH
床仕上げ
岸壁
受け渡さ
エアノズル
スプーン
貼っ
類型
統計データ
一半
##当たり
163
混練り
強靱
られれ
Tf
熱放
251
熱放射
強化プラスチック
##クリーニング
値段
1998
Man
##回数
中板
圧気
ヒレ
##ったり
ネクタイ
##ファージ
持ち出し
し尿
挟み付け
通ら
245
軽快
139
引外し
##ov
##抜く
引出す
##ラッシ
##ピラノ
スクラブ
割出し
製錬
コプ
モノエ
打ち抜か
固く
切り取る
##etooth
パンダ
ソーセージ
静音
向光
打ち出し
ネイティブ
1988
空缶
ヘッドアップ
オキセタン
##へい
少なから
明部
成果物
##ative
クラッチレバー
アルキド
根菜類
貯える
##かける
##フィード
VCI
下顎
引き戻し
ダイナモ
列数
狭まる
痴呆
##カルビル
試運転
acid
##irc
キサン
Ec
水生
##企業
プレッシャー
仕込
搾汁
隣る
全数
吹き込ま
ズリ
ナビゲ
承認者
観客
##キュラ
編集部
##資材
##ococcus
Fre
##クティック
アラビア
カプセル剤
枝分かれ
原形
ボトルネック
取除
器材
##釣り
ボビンケース
全文
無臭
世帯
有償
トリアリル
##埋め
##イソフタル
腸内
無くする
460
ペリレン
崩落
採集
##ゥース
##スタイル
インモールド
食塩水
phr
##スタンド
がたい
ステロール
##オキシム
ヨーレイト
ポリエン
ブレイク
こんにゃく
外扉
SNMP
計装
##ーシステム
901
リストア
スペックル
遠ざける
借入
Phys
STN
真核
貼合わせ
##オキシカルボニル
ガードレール
ドッグ
結び目
断た
解き
ディバイス
2003
判り
半永
日光
ne
為替
ラジアント
半永久
ガゼット
コピー機
ベンジルアルコール
移乗
ローミング
大梁
学生
##ノイズ
集客
力線
365
ガドリ
機制
flower
走路
ストリッピング
体上
実物
核融
非加熱
核融合
ミリモル
RIE
味付け
Inx
拡がっ
管形
前立腺
各自
助勢
原始
悪路
貸出し
マイクロアクチュエータ
納骨
プリフォーマット
##トラクタ
##タイミング
オム
腎臓
歯磨き
ラノ
大巾
ガスノズル
ローコスト
エンタル
視覚化
乳糖
フィニッシャ
スウィ
きめ細か
覆い隠す
海域
穴埋め
##リビュ
##戻り
選抜
チョック
中枠
217
Gb
Tx
無声
変動率
鮮やか
ポリアミック
##ational
スケーラ
##own
脱穀機
##ICS
エバネ
トリオール
鉄分
##PA
OLED
グレーズ
焼き付ける
扱える
着眼
区切る
Rx
ガタつき
ふとん
操作ミス
リセプタクル
##ニャ
本機
カレット
182
健常者
動機
胎児
##喚起
注意喚起
ワク
他辺
熱型
すっきり
内空
オーバーラン
デマルチプレクサ
##ロナイト
非対称性
間伐材
##アラ
せっかく
##OX
銘板
再発行
pMOS
いたる
依る
ベンディング
ジケトン
力行
##さし
高けれ
##KE
急性
骨粗
ゲートウエイ
フェノ
つぼ
解剖
ウエッジ
ダーク
払込
##カルボキシレート
飛ばし
ガイドリブ
工具鋼
ロイシン
悪意
為す
##ッファ
Cm
リライタ
Lix
魚釣り
GH
レポ
残置
keV
特質
##文献
CE
パーク
セメントモルタル
ストラテ
もど
235
ペルオキシド
虚数
鳥瞰図
ジヒドロキシジフェニル
管又
洗い流す
中等
成否
抜出し
管理表
##制御装置
ギヤポンプ
キープ
インパネ
通せ
日常生活
##テトラミン
##ケツ
値引き
横並び
行光
レセプト
ねじ切り
被災
実際的
累進
オリエン
身分
##ica
メイクアップ
下金
物相
等量
ADC
加重平均
トリレンジイソシアネート
##OB
ゲルパーミ
入退場
気分
記念
進化
##映え
ACC
Bs
敷き詰め
じゃ
末広がり
不安感
Bluetooth
α線
アシストガス
ECR
##フェーズ
イヌ
プロービング
##オブジェクト
入院
##port
柄合わせ
陥っ
xi
くっ
505
##ペンシル
クレセント
自治体
盛り上がっ
ニーダー
果たさ
樋部
目線
##フェリン
ビルト
Dev
ジシア
セリア
余熱
突っ張り
行使
ウォームギヤ
##びり
Vm
コム
添っ
間座
147
dis
側面図
通例
預り
184
取扱う
売場
欠き
##エチ
##仮名
ガスシールド
投げ
溶け込み
突き止め
不均等
ユニキャスト
入居
欲しい
水源
輸出
粘度計
ヒッチ
折戸
##Bu
ジャンパー
Aa
両部
Ry
100万
ATC
灯用
##PF
##スタイム
先だっ
組版
ステーター
##por
NRZ
##モーション
Mb
開削
##アラニン
##クローナル
スカラー
遮音壁
急減
##ツー
データパス
##トキシン
##osph
ディテクタ
架け渡し
スキャンパス
DNS
リライタブル
まね
聴取者
412
濃化
正味
##アウ
最内
VM
リピータ
Rt
##ラク
ハイドロキシ
Webサービス
薄葉
管理下
すり鉢
保て
分散系
アウトプット
水銀灯
クリヤ
LT
タグリーダ
付け替え
オルソ
馴染み
突板
立つ
逆光
根拠
敷板
Py
カミ
警察
##カテ
拡大図
0330
短距離
双極子
従事者
預け
##インダー
カラーチャート
アレルギー性
返済
前室
落とし込み
修整
##けん
共役系
来客
ヨーモーメント
スライバ
展示物
株元
##じっ
マルトース
塞栓
複式
跳ね返り
捕捉剤
##gg
ジエチ
キナクリドン
シガレット
フリーズ
プロセッサー
アトピー
ペナル
筋交い
版下
0000
デス
剛直
層板
##ケミカル
ネマティック
ブチルアクリレート
話速
スルホール
延焼
温湯
走る
Δθ
##えて
何時
OAM
共沈
欠乏
湿熱
##決定
バックミラー
試用
##とう
デバッ
下ろし
リヤシート
空車
##ラウレート
裂け
##ステラーゼ
トマト
共締め
158
ホスファイト
リーマ
##ピストン
コポリ
ディジタル署名
内角
降順
切り捨て
##ies
##obacter
オーミックコンタクト
ホック
乳頭
穏やか
181
当部
##raph
ジオキソラン
機動
繋が
ヘマタイト
コジェ
取囲
つない
ベンチュリ
打つ
総額
山留め
エチレンプロピレン
客土
包ん
白煙
##スタンス
Meth
クイズ
バター
結晶水
実態
多数決
##モロコシ
来場者
持参
活字
米糠
##ok
##わしい
不活化
##リーク
カウントダウン
WA
ギフト
外傷
時刻表
自発的
##emic
器内
クルーズ
すら
夏季
こんろ
葬儀
貼ら
##pe
押付ける
損益
土手
延命
経編
バース
至適
DVDROM
リー
248
ツバ
カルマン
引き続く
凸起
バインド
精米機
リターダ
sol
付か
手先
##メンタイト
ジシクロヘキシル
桟木
QPSK
scc
認可
252
##プランジャ
中層
Xi
捌き
##エリ
ガスプラズマ
ポリエチレンイミン
スカラ
引き揃え
セメンタイト
即応
外表
##sch
192
ティッシュペーパー
##ull
専門的
コンピュータグラフィックス
つや
タテ
バックラッシ
チェイン
引っかけ
シュード
SiOx
下し
占い
押し潰さ
落雷
美しく
##スピ
台木
##エフェクタ
入浴剤
一瞬
##dio
画一的
物入れ
ワット
インターフェロン
##ッズ
820
##セシス
##ating
捨てる
ポリジメチルシロキサン
軽微
量的
さる
##制限
OK
ハロゲノ
Ass
効能
引起し
配水管
再表示
抱える
セルバッファ
##ロイキン
ドデカ
規準
凝固点
一酸化窒素
AAL
抜取り
242
サッカー
揚げ物
##ンチップ
副次的
##カウント
マネージメント
ヒドロキシプロピルメチルセルロース
##オド
満了
行か
##EMBA
差額
##arch
##シェード
冷たい
ベンズイミダゾール
モンモリ
ゴムロール
入場者
##quency
sccm
液冷
鉄鉱
FM放送
ひき
鉄部
##ジニウム
取込ま
二級
メント
##ッフ
ウエルド
Division
せよ
縞模様
上体
##分裂
キャッシュカード
裏金
説明文
ポリオキシプロピレン
チキソ
同義語
HMM
割れる
Ha
##ージェンス
##ワックス
やり直し
テニス
地雷
釘打
ストライク
clone
地色
延線
検品
漏れ出る
ドクタ
へこみ
味わ
トリアリール
偏角
##がな
パスタ
##ポリオキシ
シクロヘキシレン
最前
トレリス
半透膜
誤る
起爆
##スクリ
だす
充てん
古く
検診
エビ
##ディー
DBP
不備
##of
床面積
中高
リグノ
ラノリン
サイレント
Qu
クレン
引き渡し
##バイダー
像高
##ストレーション
射光
##転車
##自転車
フラクション
フライア
満遍
##ネイト
Internet
フェーズド
思う
積率
載る
凸版
各人
十二
ハリス
方立
フラクタ
マル
亢進
無限遠
寄っ
測点
##方式
##人数
サイドドア
023
チョップ
アイソクロ
ポリシング
ジョグ
農園
コプレーナ
因果
##天然
おこな
液化天然
液化天然ガス
プレゼ
病原菌
デラミ
隔絶
IIVI
ジアミノジフェニル
呼応
足る
ガスタンク
かつら
クリーニングガス
390
被る
ジベンゾ
門柱
脈管
FW
農機
手話
授業
離解
仕事量
及ん
バイザー
CZ
覗き窓
同乗者
##マニ
##ドー
パラメトリック
LSP
青銅
不均衡
清酒
綜絖
##ホスフィン
斜方
ウォーク
##コーティング
昆布
最低値
滴定
##ホーン
レンチキュラーレンズシート
冷凍庫
Ls
pK
##年数
SMC
傷つき
ワンショット
テナント
弱点
##ぷん
ネイル
ブイ
五酸化
##ミティ
アサート
濁り
タンジェ
アピール
##gram
ワープロ
でんぷん
ベッセル
##play
議論
##電子
ドライバビリティ
浸透圧
吸殻
##GCC
ワンタイム
IgG
あらた
Press
けが
ファンド
チョッパー
地紋
未知語
オーナー
ad
##カルバミン
##ベンズ
最優
##アリル
持ち込ま
山型
##掻き
##ユース
ブルート
##igment
ホログラフィ
鉄片
##オフガス
カルバート
深溝
とらえ
スプレッド
##ハー
ダイアモンド
トウモロコシ
ネゴシエーション
マナー
概算
舞い
TNF
特段
吊り荷
Ds
炉芯
飛び散り
UI
デンド
##NI
PSK
ジエチレングリコールモノ
木酢
よこ糸
沈み込み
プログラム開発
締めつけ
##ポーズ
エクストル
コンテント
同上
截頭
##クッション
DSV
湯沸かし器
グレイン
背当て
##St
糊代
##フェンダ
好ま
チョッピング
##レジスタ
フリンジ
輪軸
造る
連行
sh
ロスト
衝撃的
ハンドルバー
930
浸す
##掛ける
異動
##あっ
グラスウール
ガスクロマトグラフ
ハザード
ジニトロ
枯渇
湿り
相差
##ノニル
ボール紙
ファームウエア
##ype
越し
ベースコート
ディストリビュ
MW
1550
ディスチャージ
ft
巻込み
セグメント化
バリアリブ
エンハンスメント
立場
終止
##ントイン
免れ
表れ
非公
##AB
平行線
オートテンショナ
##エイ
##ステレオ
割り振る
臨界角
The
返品
##湿度
絶対湿度
バケツ
##ツェ
ガスシール
##マイクロ
誤入力
スナップショット
戸棚
##ellow
消す
個人的
##アナミン
##ma
ポリカルボ
バックボード
エンドエフェクタ
カムフォロワ
##ガード
##ポリプロピレン
##Et
生葉
アクチュ
ng
波及
浴湯
1999
出血
引き落とし
ガスバリアー
ホスゲン
仲介業
神経細胞
アーティスト
厳格
並列化
半永久的
EDTA
ニン
酒類
承諾
680
ダブ
##ms
MnS
TDD
##説明書
##グランド
メモリセルブロック
セカンド
メークアップ
シェービング
ジメチルアセトアミド
異色
記載内容
マスタファイル
楕円体
##フォメーション
##ベリ
リノ
街路
類する
ユニットバス
470
##サルファイド
高弾性
##ニカル
正に
##ダクション
Cx
公園
##ish
習熟度
位置付け
螢光
病原性
ta
トング
病人
##レントリアミン
レポーター
閉じ込める
グリシドキシ
セイ
貫い
原糸
マンニトール
穂木
オキシム
隣設
最優先
##ベラー
cp
##キブリ
オント
精製水
ラボ
割付け
頚部
##ケーター
1002
ヘミ
##テール
エネルギーロス
転記
NiP
引裂き
通信販売
ホットガス
相分
デシカント
描写
銅管
コンバーター
フラクタル
対処方法
##用紙
備蓄
目指し
低かっ
フライアイ
死亡
そなえる
こて
度目
袖部
##バール
拡張機能
賞味
iso
吹付ける
抜出
モチーフ
跨がる
基く
日焼け
##マトリ
デモン
羊毛
マルチタスク
MG
##インシュレータ
##クミル
サブアレイ
セキュリティポリ
エタノールアミン
フェイルセーフ
##ress
ホワイトボード
フルオラン
ラブ
MX
モド
##ニク
MU
綴り
##ベンゾエート
鋳鋼
体構
ハガキ
エラーメッセージ
磁気記憶
イム
上空
小分け
キャビテイ
はみ出
逆さ
##クトース
スライドピン
ひけ
フリッカー
役立てる
Stre
防漏
CHO
後脚
雨量
身体障害者
天窓
光用
添接
チタネート
切り換わり
前列
インスツ
動線
##ウザ
圧壊
横穴
封じ込め
パートナー
毛先
口出し
造血
ファンデーション
宿泊施設
ar
CTL
くら
ケーブルテレビ
##リジノン
##デジタル放送
喘息
トレードオフ
チェッカー
bi
ノンドープ
販売会社
SZ
くれる
逆行
不審者
カード決済
抜き出さ
中軸
##uter
取り消し
止め弁
割出
実証
絞り込ん
リノール
花火
##マージ
アコー
スチレンブタジエンゴム
視聴率
凝着
坑口
類縁
隠れる
工事費
換金
張り出さ
軸棒
##ツチ
冷却機
オートバイ
無条件
ファイルアクセス
##STN
##クロマトグラフィー
##メチン
インデン
イソチオ
キシリトール
##ater
##ーナン
プランクトン
PFA
割り出す
1987
あふれ
Ip
不成
さらす
エアダクト
天然石
##スティネーション
ヌクレオシド
四周
蓄勢
酸味
ACF
チアゾリル
KrF
膜式
##onas
繋い
Bacillus
有声
図書館
##パルプ
ポーチ
支店
不成立
マイクロメートル
電食
##tegr
油煙
##ydro
エピタキシ
##フラボン
エアタンク
##スリ
ホコリ
未定
海岸
整っ
打ち勝
マスフロー
切り粉
ばあい
丸く
##ナフタレート
##プロピルトリエトキシシラン
キャッシュサーバ
きたし
ガス体
グラニュ
化学繊維
移し替える
VICS
ストーカ
組み入れ
外見
幹部
##メロディ
EN
co
在席
アンギュラ
遮へい
丁度
深み
カルーセル
ステッパ
竹炭
Biol
モンモリロナイト
torr
##プリタ
思考
風合
もちい
ダイレクトメール
FNT
ブレージング
メチルチオ
273
逃げ溝
心地
##ンダン
ミスマッチ
金め
着信メロディ
##ケル
プルトニウム
曝射
トリブチル
day
水門
##タイマ
無論
抜き取ら
XI
##lic
##パワー
太陽光線
体温計
動詞
改装
補整
ウィング
替わり
##400
##いす
##ゲーション
オスミウム
モレ
機械化
白土
CoO
出せ
交通事故
譜面
払戻
降ろす
枠線
舵取り
325
グルコサミン
##ブチロニトリル
##OFF
歪む
範疇
空き時間
重なり合わ
##ight
金めっき
gr
時代
ラッカー
海島
蓚酸
見せ
炉水
##デシ
##トロピー
欄干
コアピン
ゆるみ
傷付き
封書
交錯
##OD
自営
遡っ
##オシ
ポケットベル
SQL
トノ
ワンチップ
##インタラ
スラスタ
見出す
優勢
先出し
暗色
##座席
後部座席
##インデ
デフォルト値
キャッチャー
山折り
PU
油通
見込ま
高々
##CL
取り上げ
はす
##らっ
グリチル
車いす
##ープレート
ガイドライン
サプライヤ
アメリ
流れ落ちる
コピー機能
Data
終える
横筋
ラミネーション
ジアザ
直視
保護者
ブルートゥース
インシュ
造り
Vn
or
ゴキブリ
一巡
剥落
拾い
然も
貼付ける
夏場
特異点
ハレーション
気軽
けら
残金
ハーブ
返還
アルミ製
ティック
ファッション
旋律
正面図
ひさし
道糸
需給
##プレーン
窓板
ヘリコプター
##ise
##シップ
巻き数
ユニオン
ほう素
コテ
プラテンガラス
塔状
ケーブルコア
ブロム
透水層
左上
##ゴール
##関節
超音速
テキストファイル
ガラクトース
gen
発動
リバウンド
自販
鏡枠
ピロメリット
チリ
バニ
対立
手ブレ
最大数
インターロイキン
スカンジ
消毒剤
##オクタ
ウェルド
リトラクタ
精紡
バイザ
DMD
VV
締まり
消毒液
ヘリコプタ
パッファ
糸端
##ツハイ
尾部
##GAA
掛部
日照
##深層
海洋深層
海洋深層水
Mc
フアン
橋軸
橋渡し
ビデオカセット
洗う
野外
マルチプレ
突き出る
振れ角
上げ下げ
ln
麻雀
##BF
通し穴
トライアック
偏る
抗癌
EPA
かみ合い
クライアントサーバ
お客
乳児
##メチルアンモニウム
デスケ
ヒップ
自力
##ロッパ
切り花
楕円面
逃す
送り先
ノンハロゲン
天部
路車
債券
メッセンジ
シャープペンシル
掻き落とし
##アルミネート
ローマ字
YS
バージン
非公開
称し
縦管
緩む
##SE
宝くじ
ウオール
ブランド
横臥
ゆがみ
ルーズ
下定
引き離し
ラリー
導き出す
デュプレクサ
ローテーション
ゲト
##フレット
ADF
##がう
腹膜
##ストップ
ベンズアルデヒド
布片
##ダンパー
みれ
落石
剤型
やさ
##サッシュ
off
添削
費やし
LM
ハイサイド
とて
##ホモ
イムノ
チクソ
踏込
受止め
ヒューマン
サークル
##マグ
契約内容
在室
アノテーション
ポリオキシメチレン
RN
切取り
捕らえ
本例
真鍮
請負
高速性
ブースター
インキュベート
シンタ
脚立
中皿
戸開
##デント
##フィックス
fi
整粒
購読
払う
市街
##メチレングリコール
パンフレット
TMR
洋風
信号灯
配達物
盤側
機械語
PSA
サンバイザー
筆圧
漬物
##キュア
胚芽
滑り面
デザインルール
##ave
ヒドロキシエチル
##ethyl
骨粗鬆
合意
荷積み
エレクトロン
擦り傷
フォトディ
意外性
ヘム
イジェクタ
堰き
入出力制御装置
TIG
キラル
梨地
データグループ
クラッチペダル
手荷物
試着
レファレンス
ギヤボックス
CaCO
##スチール
pin
リュ
俯仰
図ろう
援用
格付け
506
突き抜け
トリアセテート
貸借
測角
##ぷら
カップラー
堤防
現われ
シュミレーション
##残り
フェル
空席
振込先
フランク
プロピレングリコールモノ
##ロスコープ
引き伸ばし
随意
フロントライト
工業製品
一意的
止めねじ
除湿器
据え付ける
デモンストレーション
DBR
コイ
ゴルファ
裏打
的中
Bn
バウンド
上顎
スレッシュ
セントラル
##混ぜ
##パッキン
勤怠
隅々
バスシステム
磨砕
kb
人差し
現存
生菌
前脚
結婚
見苦
豆油
HN
サイフォン
見積もる
WB
自然光
ジクロル
ドリンク
Hum
抱か
CX
カイロ
Vdd
事件
実車
病名
##張っ
ごみ袋
灯器
プロシ
カウン
0003
オキサジ
スプリンクラ
##TD
アルツハイ
##バーサ
薬用
動物性
骨粗鬆症
フルフ
##ピリ
##anic
アイソクロナス
調査対象
骨折
安心感
##コンプレッサ
RTP
せり
湿っ
ちょうど
並び順
沈殿池
トリメチルアンモニウム
ふく
段違い
##マント
##フォロア
##アクティブ
ターシャ
##アルケ
スクータ
ワイパモータ
受け側
ミクサ
中又
固まり
大切
将来的
縫針
リフティング
リユース
生態系
形作
来たす
花卉
##フエ
ハイウェイ
カタカナ
はまり
先述
可倒
ゲルパーミエーション
データグラム
ガスク
##区間
ガラスブロック
合わせ目
主点
ストラテジ
気味
突き出さ
Db
エレクトロマイグレーション
AFC
ノルマル
ブレークポイント
ポリカプロラクトン
人差し指
職員
電送
fa
##ラスコ
巻取ら
炉頂
##運動
ジェスチャ
Time
風呂水
自販機
アート
折り込ま
掲げる
ひど
チル
テールゲート
外耳
編糸
##ograph
Phot
emu
Electron
##劣化
業務プロセス
経年劣化
ストラクチャ
ハム
果肉
溜っ
##点検
定期点検
不合格
はみ出さ
##キノンジアジド
噛合う
ホモジナイザー
糊剤
検索機能
予定者
農園芸
転置
コアシェル
凹む
##ナイフ
アルツハイマー
2人
抜け出
PBS
CoCr
ビッグ
##グレード
連結器
融通性
モルホリン
##クタイト
分銅
脱し
##uit
単管
##わし
プロテクション
スタッカクレーン
##インタラプタ
攪乱
##フォー
##ome
かわり
不慮
向き合っ
盛ん
終結
##ulation
コジェネレーション
対辺
Yellow
pF
値引
命名
ウィンチ
PDU
パスト
危惧
##アッセイ
##アレー
居住性
コンパートメント
突き合わせる
割る
フォーカル
7000
異常終了
軸承
水準器
Exp
Pigment
突き破
引っかかり
##チェンジャー
1日
アゾビスイソ
縁端
ライザー
レピア
球菌
##ステージ
1985
泡状
CHF
DVDRAM
カラギーナン
踏ん
つま先
受け手
メタセシス
資産運用
テトラゾール
##ecular
サンシェード
830
毛布
缶詰
違法
地質
様相
##コンテナ
vii
小幅
##チジン
住所録
アルキッド
トッピング
ローション
プラチナ
アラビ
写真データ
片方向
PSD
チアジ
飲み口
Opt
小滴
母屋
BaTiO
喰い
固い
引渡し
降水
コギングトルク
リフィル
各群
トリフルオロメタン
段板
##ipt
主柱
##カウンタ
他社
円運動
Car
各線
病態
与圧
空回り
サブグループ
倍する
微視的
薄物
教師データ
型押し
##カーボ
検査精度
中折れ
同系
スメクチック
柑橘
覚える
##ひら
ブドウ糖
406
リアクション
DQ
減肉
スメクタイト
cP
##ヨード
アリールチオ
Soc
くせ
##ルスメ
掻寄
##ACT
ローカ
HDTV
プロセッシング
各巻
指示薬
内添
##ンプロ
英数字
##ポジトリ
ts
##リボ
キャプション
カムピン
おれ
洗面所
ひら
##体的
ガイドポスト
バックグランド
もろ
腰壁
ディッピング
リカバリー
アキシ
穴あき
##分岐
条件分岐
##フォイル
Blue
軟らかく
組合わせる
複素数
冗長構成
ストークス
打ち出さ
アクリロキシ
##ぶり
チッ
見映え
ずらい
重なり合い
オシロスコープ
Lp
フェニルアラニン
##ボルバ
くい
はし
マルチバンド
色票
レフカメラ
さす
潜り
234
##カルバモイル
観覧
電流計
褪色
ガドリニウム
メントール
いまだ
HAZ
ルーパー
観音
##レエート
ニトロソ
ハング
バイヤ
空気ポンプ
InGaN
撹乱
電気料金
アジャスター
パルセータ
Wb
化体
アトマイズ
上肢
剤形
模倣
改良型
先入れ
##ードライブ
SrTiO
等温
##インポーズ
バラバラ
アドレッシング
緩い
踏む
モノリス
余剰電力
仏壇
ドロマイト
防虫剤
ぴったり
タウ
アフィニ
球技
オレイル
ユーザインターフェイス
にくかっ
偶然
リアプレート
角状
##セパ
入力者
インボ
##スキ
気道
ピリダ
##フリ
漏れ出
##警報
作出
##トレイ
シグネ
エジェクタピン
サンダ
フォン
っぽ
現に
トリマー
スクイ
##ペンタン
マーケット
HBT
データソース
かみ合う
アプレット
糸状菌
660
ARP
片寄り
1350
グロス
暗室
浴び
盗聴
給油所
屎尿
トリートメント
リヤカバー
##リジノ
くす
始まっ
0002
判ら
バイオガス
オキサゾ
たれ
引き下げる
##ドリル
パララックス
ヘラ
足先
逆順
##ジアン
縫い付け
バイモルフ
つなが
タイムリー
投票者
ビルトイン
規範
ジエトキシ
##アセトン
kcal
##パイ
ステンレススチール
議事
##キサントン
20011
アゼライン
228
崩す
モノラル
シロッコ
混紡
締め固め
糊化
模範
風切り
詰める
##メンテーション
両脚
##VA
芝刈
陽圧
雌螺子
詳しい
復活
カフェ
##ちゃ
見なす
323
イソプロピ
アロエ
左辺
ピルビン
Hb
LPC
なまし
上室
FED
フリース
沃素
流失
アミノフェノール
溶かす
ワールド
丸穴
割り振り
##よけ
無添
##刺し
新規登録
##リジニウム
無添加
ゴー
##スキャン
Ins
SNR
デヒドロゲナーゼ
香辛
coli
ベロ
メディ
##CDMA
軽度
##指示
##プリズム
##アブレーション
ディスコ
Techn
コプロセッサ
待受
排する
金券
計算器
ペナルティ
Science
捲き
歯根
VSS
講演
受け持つ
0100
SON
グルコシド
貸し出す
ニューロ
ロケータ
思っ
ATA
防滴
ケ所
修繕
モノアルキル
##600
##ギリ
クリート
##ification
切り換わっ
Pip
ヘン
##ダクター
取り回し
760
##AlAs
##ノリ
引張る
多翼
撮影中
プロピオネート
##ont
ろ液
CSS
ピペリジル
##agnet
インデニル
のこ
参照先
尚且
尚且つ
高かっ
回る
##ントム
カバーレイ
ゴムブッシュ
計数器
流れ出る
シートバー
Rec
プレミア
##ve
意思決定
出版物
一応
名義
主観的
エラス
多管
踊り
インスツルメント
カプロン
客先
押し引き
乗り移
##レッド
鋳込
ヨーイング
収まり
分離機
細胞壁
##eud
雄螺子
まつ
傷め
石けん
チェックアウト
身障
##駆動
係り受け
##ツール
激減
##イメージ
##インナパネル
溢れる
短かく
##RO
グリセリル
上定
10100
コレクション
ニンニク
##シュー
正常終了
アシッド
摘採
単色光
Cc
丸型
好む
重度
洋式
油種
戸板
ライフサイクル
スチリル
xn
エンタ
ユビ
振出
インピ
コンバイナ
センターピラー
クリプトン
シンチレーション
カルコゲン
身障者
焼失
##ワイ
##塩水
直接入力
いつも
Micro
撒き
DX
##科目
イットリア
ESTs
小石
195
##ファイヤ
手のひら
オーサリング
グリッパー
嗜好性
##セニル
はかり
チヤ
ペル
網側
オリーブ
ジエチレントリアミン
##食塩水
IPS
最高値
生理食塩水
デカップリング
拍車
##コンビ
エネ
フラスコ
マスタデータ
out
自動更新
##信号
優先権
GaIn
AFM
##トウ
算出式
スクラン
絡み合っ
##ank
過小
ペルオキシダーゼ
かゝ
頑丈
ユーザーインターフェース
イージー
ひねり
超合金
軽合金
##フィンゴ
RAS
水難
積込み
管理局
記帳
##onduct
のぞ
台風
臨み
アニーリング
しな
生命体
滑沢
カテコール
kh
##ヘッダ
スプライト
Do
仕分ける
シートカバー
マイニング
鍋内
##テインメント
受諾
垂れ下がっ
15000
ヨコ
##サリ
解決法
490
見込
燻煙
シャドー
見いださ
MAP
シトラ
取りつける
取引内容
ロタ
全画面
染め
歯肉
巻き締め
バイオレット
ラクチド
ぶら
##センブリー
口蓋
紙袋
撮り
正イオン
雛形
Log
評価者
##omonas
水抜
##残高
Ind
好き
ユーロピウム
デメリット
連成
##プロピオン
アクセプタ
##ronous
Sw
ロアー
インプリント
横板
延ばさ
赤熱
巻き付い
##actor
##乗せ
##プロピルメチルジ
TDI
吹出さ
売掛
持ち帰
911
コレクター
ただちに
マウンティング
良導体
##ヌル
Dm
コアロッド
##ショルド
ゴマ
写っ
病室
突き合せ
色版
スランプ
掻き出し
中間言語
セード
留まっ
Aut
教室
FeSi
ヘテロポリ
横流
警告灯
クリンカ
DATA
しおり
神経系
劣悪
脂溶性
草刈機
美術
##ジカルボン
LF
ショウ
台帳
晒す
ガスバッグ
Trp
ベベルギヤ
エー
感作
##返り
かかわり
イソフラボン
LiMn
輸入
垂れ下がる
レジューム
CTI
くずれ
吸上げ
フィブロ
##コンパ
1040
兼ね備える
かさむ
亙る
曳航
##プロフェン
##ソルビ
id
平面鏡
コアレス
製函
目押し
削り取る
スカンジウム
カルナ
マンノース
ナイフエッジ
ささ
ルビジウム
幅員
熱機関
競売
InGaAsP
##ircuit
クリアー
バイオセンサー
内外装
斜角
エアブロー
無意味
講ずる
##パッケージ
資産管理
##レングリコル
長板
##抜い
架する
ツル
変造
おから
##ポリアミン
更新履歴
New
助燃
販促
##プチダーゼ
害する
透け
##衛生
SiR
鉛直線
PFC
デインター
ハイビジョン
耕耘機
片寄っ
デバッガ
すれ違い
FFC
ファントム
巻き付き
スクラバー
フォトディテクタ
Fa
##Pb
気管支
NL
Med
gene
損う
氷雪
##担当
モジュル
##リニル
ブラダ
噛み合わせ
ジャイロスコープ
耐用年数
ヘミング
奏法
突端
トランスミッタ
穿孔機
聞き取り
方向指示
肥大化
上金
HRC
##チタン
CAS
ton
イレーズ
反撥
キャスタブル
Process
スペーシング
ヘルス
トリハロ
レンチキュラ
COS
嫌う
欠相
kA
叩解
CMC
ポリクロロ
Ro
新案
畜産
地帯
白血
##ore
ヵ所
光書
フラボ
倒壊
板型
浮き上がら
OMe
WR
##TH
ドグ
ヒント
オンフック
不可逆的
突き当てる
シュードモナス
##ectro
グルタチオン
##yt
楽しめる
着色料
##保険者
株主
順送り
預金口座
民生
##テトラヒドロ
エスカレーター
マッハツェ
乾性
##フイン
発言者
cd
小量
類推
嵩張る
預かり
知得
褐色
購入履歴
擦る
石綿
174
書画
張り付ける
VOB
音響効果
医学的
##UB
機能水
イニシャ
先だって
ポロ
引換
カプロラクトン
かび
巻き芯
イグニッションキー
##担当者
腰痛
中程
傷み
巻き上げる
##ベンゾフェノン
段式
##ーマイト
PCa
##ブラウザ
方角
##すぐ
声質
ダイエット
##クシネート
eq
上塗
到底
荷主
Fs
主観
布部
##ずり
エチリデン
呈味
立面
サポーター
横た
グリオ
PCT
エバネッセント
生み出す
商品化
易かっ
後頭
支出
包ま
##づけ
SiCl
PMMA
GSM
インボード
Ed
膨化
##不全
##ライゼーション
におい
ノー
想像
インフォメーション
インナーチューブ
分数
考え出さ
とどめる
トリメチロールプロパントリ
掻込
景色
##アミル
キンク
テラス
果た
補い
タコ
福祉
中仕切り
MIC
シラス
##あう
半数
砂型
##メチ
リダイヤル
980
速度計
便所
DSL
IQ
火山
作業場
引き付け
##ウレア
##キノリン
##レラ
フェナント
ロールコーター
##クチ
##カオ
ポリベンゾ
149
##ランダム
ベーマイト
気量
被っ
取り付けれ
据置
座る
産出
含硫
フレックス
電話線
プレスト
解剖学
群間
ポリシラザン
227
港湾
固型
##RS
防炎
##落し
ジエチルエーテル
ユーク
小指
載設
035
BPF
トリメトキシ
遮水壁
備えれ
柔軟剤
規正
貯玉
スーパーインポーズ
なつ
地物
精査
コネクタピン
メチルフェノール
トロンビン
研修
##直さ
エチレンプロピレンゴム
TO
協会
トランスバーサル
LSB
切望
崩し
引継
風呂釜
ディストリビュータ
登り
柱間
釈放
垂直線
アウトガス
勝ち
ガスシールドアーク
##ポア
シアノアクリレート
リファレンスセル
ポリオキシエチレンアルキル
下腿
ポリパラ
入金処理
##ープリント
統合管理
エミュレート
石板
素性
##ied
3500
対偶
レトロウイルス
注射剤
ゆき
剥れ
長形
##能力
スレート
調速機
Ka
雪上
束ねる
号機
各地
ブラダー
PSTN
碍管
コンセプト
デンドライト
タフ
##ベスト
シソーラス
ap
挾ん
##ディスプレー
デリバリー
オリエンテーション
骨盤
魚道
##メンタル
湯道
##スキャ
ヒドロカルビル
紹介者
吹き飛ばさ
##チュード
近似値
最小限度
着陸
製パン
重要視
クォ
CuK
ロアケース
マシーン
イモ
上着
受聴
##出そう
kJ
一掃
173
フォトインタラプタ
エイコ
チタンシリサイド
##ella
1986
ニュートン
油状
演色
還気
起床
##バント
COOM
ラチ
FDD
燻蒸
パディング
普段
気づか
クマリン
壁下
##キサミド
730
出せる
包埋
叩打
ゴミ箱
営業所
核分裂
リレーショナル
リターデーション
Frequency
扇風
##サーキット
テレスコピック
立位
発破
##ベンゼンス
基軸
引き違い
ジイソシアナート
升目
大判
さや管
インジェクター
目皿
ぶつかっ
ジクロリド
固まっ
##カバ
縦幅
##ynch
エス
カッコ
##コイド
コンドロ
対向車
##ルダム
ゼータ
LiNbO
JISK
シンクロナス
鼻腔
年度
耳障り
角穴
ならし
##inase
##エキス
聴感
這い
##労働
抜け落ちる
工費
ヨーロッパ
内分
広義
不鮮
紡機
作り出し
クエンチ
不鮮明
車両番号
チオエーテル
波源
セルトランジスタ
ジアステレオ
##すまし
##GAT
##スキュー
スーパ
灌流
貯油
いち早く
##フォスフェート
探し出し
嵩張ら
掛り
##Ox
背負い
糸道
##クラン
ロケットエンジン
タレ
客席
##まとめ
##アウタ
天ぷら
引取り
得意
##メニュー
##バスト
抜け出す
正否
グルテン
ドライクリーニング
分線
##ぱら
チオシアン
パワーオンリセット
Dc
嵌込み
起す
ポリイソブチレン
立脚
##増し
Or
スリッタ
扱っ
セルプレート
ブロツク
サムネール
Pack
油漏れ
包み込ん
Nch
腸管
##リイン
191
網内
kDa
アミューズ
ストーブ
セルブロック
Sig
イソチアゾ
デイジタル
##コキシシラン
前提条件
res
他物
##ケト
##こし
ムーニー
ファジー
不均質
出会
溜水
カップラ
立ち上り
徹底
ウラ
温める
##グリセロール
扇風機
叩く
内殻
トリメチルシリル
請求金額
オルダム
イニシャライズ
Sch
表題
追焚き
口座振
イミダゾリル
ベーパー
##予報
計測機器
219
ローパスフィルター
中古車
汚染水
コミット
縫い合わせ
葉部
対応策
バックレスト
糸長
comp
デプス
予兆
故人
ガスバーナー
肩掛け
行動パターン
ガーゼ
引け
ダル
ガラス瓶
プラズマガス
##ホスホニウム
粗密
##効性
##グリッド
出っ張り
##ピペリジン
アミューズメント
類別
たて糸
脛骨
##Ser
スリッター
オーナ
組合わさ
火災警報
オーバードライブ
制作者
クメン
削っ
スタンダードセル
##チタネート
アント
売上げ
天体
##知識
##チジル
##しさ
ai
器械
製茶
##WB
墓石
用土
##変え
バックパネル
MIB
fn
##の子
##DH
##案内
アルド
最上階
手洗
ロギング
競り
管中
陽子
##BR
無限大
押しつぶ
Serv
##ヒドラジド
オムツ
##オシレータ
入物
##FP
青果物
はずみ
らしい
水回り
濡れる
##現実
仮想現実
ボタン穴
押さえ付け
確かめ
CHR
乗り降り
やれ
実動
有段
##カーソル
肌触り
##ポリス
成端
体壁
Transfer
苗木
ラウロイル
半開
鴨居
ライティング
##アシスト
Metal
休日
舞台
クラッキング
煮汁
被保険者
入力フォーム
流れ落ち
DIN
卵殻
WSi
スイッチオン
##ヘキサメチレン
ITUT
シック
##作成
フィッシュ
二酸化窒素
臭化物
アブソリュート
メタクリロニトリル
ソロ
珪砂
##try
利用料
##ーマーク
ドリ
レイト
再試
CH4
##ストローク
再試行
肯定的
no
食べる
勝敗
880
中指
事務処理
刊行
合掌
ジオキサ
マッハツェンダ
サーキット
届き
##シャツ
##込もう
吹きつける
dyne
flowerJ
星形
決算
##デイング
##まち
スタジオ
治験
出面
##ラストナイト
レシプロ
蛍石
オフトラック
糖化
309
ジオメトリ
準ずる
##position
##コリメータ
カーボ
冗長化
翼板
散薬
##さっ
翌日
チオキサントン
雨戸
キャッシング
##ッシー
トランクル
##リフレクタ
Inc
##ノコ
コンタミ
##グリカン
繋ぎ目
絡み合い
ブレークダウン
香辛料
FE
アフィン
嵌める
引き当て
ホトダイオード
歌唱者
造ら
流出入
##プレポリマー
##omic
テンター
ドコ
主張
当てはめ
土層
軽鎖
##マイセス
刈払
反射角
メチルピロリドン
HDL
新着
陰圧
オンデューティ
横波
縫い針
ローリ
摩砕
##RM
ポリケトン
逆送
イソプロポキシ
ヒノキチオール
##じて
Mr
うけ
##WR
スルホネート
降坂
集じん
##ライブラ
通り抜ける
FTP
熱い
欠品
作業場所
ディスクリート
塗りつぶし
イミダゾリン
過敏
損わ
##CM
倍増
消化管
歯垢
WEBページ
ストレプトコッカス
##スプロ
多額
OSO
##ource
減殺
通称
不要物
Cg
余っ
耐寒
除け
##ジグリシジルエーテル
幼児用
市街地
アジュ
331
##ブランクス
ロアアーム
エアミックスドア
GS
両頭
##のこ
ナフトキノンジアジド
チェンバー
ベアラ
##ハーネス
SCR
居眠
挟まっ
水なし
スプラグ
アセチルアセト
CLV
股関節
##オース
データセル
其の
杆体
縦波
吸込ま
援助
エチルアクリレート
940
ロックバー
##PCM
ビニロン
ション
単発
施釉
掻き落とす
土嚢
講座
セキュリティポリシー
油類
紅茶
##istor
後向き
##スタグ
しっとり
サポニン
締切
##グルト
打ち消さ
最短経路
床土
##VP
トリシクロ
エンジニアリングプラスチック
救命
ドル
##スタント
サンプルガス
防波堤
デスケーリング
ナゲット
引寄せ
##800
##ラツキ
コンドロイ
トランクルーム
エアーポンプ
症例
##IST
概念図
ッド
巻締
リダンダン
##ナイド
ほつ
小束
損なっ
##ディスト
##シアネト
シルエット
スエ
惰性
セラミド
速乾
##リニア
キャノ
183
優位性
和らげる
効き
後日
達せ
##ケーキ
プローバ
ディスクリプタ
Video
##ルスキー
白板
コンミ
Ve
ムービー
クリティカルパス
ヌクレアーゼ
巻締め
インサ
ポンプセル
アルコール飲料
ロケート
衝立
##スリーブ
帯鋸
##ae
##交通
カウリング
クラウニング
済ん
頻発
407
大麦
断つ
空気弁
交通手段
売り上げ
求心
黒点
##アライメント
##持っ
切符
織成
つり合い
四角錐
住人
擾乱
毎秒
##起こす
ブラウジング
PEN
等高線
居眠り
日中
ついに
ボルテ
疑問
##回ら
斜交
水素水
落とし込む
デラミネーション
パフ
不注意
液封
I3
スペント
フルオレニル
剥がさ
中位
前腕
発毛
サービス業
フライアイレンズ
テザー
##old
クエリー
エレクタ
アクロ
締め込み
伝統
マスカラ
##ett
##ペンテン
スタビライザー
サブク
一方的
トリコ
高揚
ドアサッシュ
前倒し
乗り上げる
##ベンザ
行き来
##cript
スイッチギヤ
シアネート
ディスパージョン
白血病
台船
##マンチル
建て込み
採水
動物体
沈砂
造物
スウィング
GM
デジット
DME
管長
まとまっ
SNP
既成
当てはまる
カイラ
##アパ
##DPE
ロート
μΩ
ジアリルフタレート
かすれ
手掛け
RX
ステツプ
603
森林
##ジメチルエーテル
手入力
老朽
高脂
##ステート
契約書
ピロー
159
ベビ
プロバイダー
スクリーンセ
踏み台
グリコシル
答え
##券売機
自動券売機
入会
飲む
ジャバラ
SPS
mK
プロポリス
##ーリック
デン
##ulator
##フイルム
場内
関連付け
聞こえ
むだ
へたり
濡らす
Human
敷い
##ねる
冬場
歪ま
##グリセライド
道床
見つかっ
put
##ink
ピロリ
MCM
泥漿
認める
間違える
コンディショナ
侵さ
火口
オープニング
アスペルギ
はめ込ん
述語
##濡れ
限りなく
タイン
##ber
トリプト
コンバージェンス
##ニルオキシ
##明細
中性化
サニ
色別
##ドーム
##sp
ファクス
##ンスチレン
メタクリロイルオキシ
家計簿
ti
バリン
スワップ
TTL
##スタブ
エンドトキシン
レゾルシノール
内室
要すれ
ポリアルキル
##ボート
##習慣
サイレンサ
ジメチルアミン
##ymer
吹き飛ばす
meq
体幹
局内
自動処理
循環器
ヘルパー
ni
ONOFF
見積書
ストッパピン
ベンゾチアゾール
未読
無制限
##ピロール
ビルダー
ピラン
除数
放送中
開き角
専門知識
もみ
##こぼれ
リポジトリ
スポットライト
##CoO
ウエッブ
受診者
xN
フロロ
レコーディング
厚で
高比
似顔
##aa
##ばん
通知機能
エレクトロルミネッセント
VCR
Computer
風向き
233
見積価格
養毛
##LK
##プリメント
COF
##ポリシリコン
まぶ
裏紙
NK
接手
組む
活かす
発車
精白米
かゝる
併有
##レバ
ダイバ
1003
事柄
アダマ
陽電子
Sin
両辺
##ue
##ッスル
勘定科目
下底
##スプレ
##メトリー
Rm
スレショルド
MAX
紙媒体
イマ
二進
嵩み
クロマトグラム
ゴムクローラ
束縛
##PD
ICP
クレイ
先駆
囲わ
濁水
総括
スフィンゴ
小胞
未確
スピーチ
##ウィルス
FBG
配送業
導き出さ
gl
インロー
Area
##DSL
試験項目
625
右下
対局
疎密
フェーシング
ゴルファー
座位
遺体
コネクタフェルール
Display
しなやか
Gm
1080
ウェブブラウザ
クリスタル
待たさ
レオロジー
二部
まくら木
BER
エポキシアクリレート
証書
ずらく
本編
白い
超高
##ler
専用端末
##ハンド
折角
鑑定
##arm
ピロリジン
外断
902
外断熱
PTT
IPA
配送方法
CDRW
tc
非極
頭側
##コマンド
トレーラー
個装
ホットスポット
ガスセンサー
キセノンランプ
安易
基準局
ハイブリット
クーポン券
ムービング
注ぐ
##動脈
自家用
清拭
常識
汚さ
類義
覆設
20012
CONR
くらべ
##がん
先立つ
##リットル
縁切り
##日光
##esc
クロロベンゼン
対照的
アビジン
カイラルスメ
5万
##リチン
直射日光
ステアリングギヤ
ASK
両足
経路検索
結晶系
見逃し
マチ
##Oe
ジメチルポリシロキサン
服飾
STI
Nature
所見
##エネルギー
ダイヘッド
##ポーラス
取り消す
ぶつかる
クラフト紙
数える
##ーダル
乳製品
危険物
CAV
##マシーン
##ission
遜色
マウスパッド
ぶつかり
レギュラー
ホスファゼン
新築
##技術
エンコーディング
吉草
##ルエン
Read
ダムバー
届い
##年月日
スペス
514
TMA
難かっ
SiON
アゾビスイソブチロニトリル
炭粉
高度化
落ち込む
ネオジム
##グラス
充当
プリコート
inter
熱中
テープレコーダ
マウスカーソル
##ージャー
ロウレベル
イースト
##kn
##テルペン
##ournal
尖頭
##xy
切り取ら
弦楽器
波打
繋止
アイソタクチック
現代
未確定
pKa
貯水池
生活習慣
Molecular
脱墨
吉草酸
割高
間引か
帰宅
文中
もっぱら
ボルテージ
悪戯
ほゞ
許し
コーター
##スケープ
結球
薄紙
ヘアピン
きっかけ
モース
##eng
適応性
透明感
パイロ
##lex
法律
フォロア
APS
マルコ
##やけ
補助輪
船内
持ち手
tn
常光
##のみ
176
177
MPLS
測る
##ベタ
塗面
TW
YC
コシ
##ストッカ
リッチガス
ポリクローナル
文言
ダイヤルイン
マクロファージ
アトラクション
硅素
丸い
ウェア
スライドガラス
カーボンファイバー
振り込み
果樹
##ウェーブ
バイタル
木綿
エジェクト
頗る
チョクラ
多角柱
読ん
レシーバー
##スロット
ひげ
ティシュ
インフレーター
暫定的
後頭部
土石
職場
震度
試算
##iqu
無地
股部
611
167
溝穴
溢水
##切っ
ECM
プレストレスト
クマ
##葺き
エアコンプレッサ
トリクロロシラン
塩析
撮影後
1024
受験者
ウォーミング
サブトラクション
コンドロイチン
薬袋
##ray
巻き戻す
警告メッセージ
アジュバント
##エテル
ペルオ
緊縛
腰掛
ヒドロキノン
公表
雇用
テスト項目
702
##フルオライド
##アルカノエート
NV
風選
エラーチェック
ほん
応急
ヨーグルト
GI
エンター
ターム
##スイッチング
ごみ箱
マンコンベア
モルホリノ
時相
甲状
再帰性
クッキー
リコイル
圧さ
見做
余剰分
##スルホネート
236
244
解法
##デス
##ローラー
##アリ
##ケス
平織
##ジメトキシシラン
タッチスイッチ
チョップド
倒さ
実感
流送
病理
##ドッグ
年々
自然言語
##ization
自然言語処理
リダイ
来し
雄雌
##かえる
関節炎
メジャー
水濡れ
海草
##ペックス
##ochem
AH
入替え
効率性
ばらばら
##アンダ
絶対量
積み降ろし
濡らし
オット
ゴーグル
きに
被乗
##シャーシ
所有権
議事録
上底
##チカル
吐き出さ
キャタ
かぶせ
結び付け
主機
##コマ
カーリング
完全性
通行人
へら
シヤ
藻場
##デタ
##がし
##通貨
モジュレータ
外包
留守録
実験室
蓄力
##Ca
##パート
ヒストリ
はしご
ガレージ
切り込ま
殆んど
##ザーバー
アクセプター
##ロイシン
括れ
ホーゼル
英国
たた
返さ
組み替え
##arge
ポリアクリレート
ORF
抜か
##ニャク
ナフトキノン
If
無洗
インビトロ
竹材
掛け合わせ
プロテーゼ
読みとる
##ロル
##酵素
169
マークシート
サンゴ
npn
Lm
送材
アスペルギルス
TEG
尿中
肉抜き
農用
##UC
ばた
##タップ
##truct
Strept
コアプレート
干渉性
RZ
グレア
Ld
同寸
金銭的
剛毛
序列
イニシャルコスト
クレンジング
##ライブラリ
察知
##EV
##トリガー
クロノ
ブレーズ
ウレタンアクリレート
##ynchronous
卓越
##ept
マルコフ
Sub
タリウム
時報
マルチパルス
プロセサ
トピック
摘ん
GeO
Natl
ダンス
弛ん
用排水
艶出し
偶発
グラスラン
レドーム
口座振替
横倒し
混同
Dv
満タン
持ち越
ラウド
ジョイナー
ギガ
品温
##Cd
タンジェンシャル
有向
線端
嵌め合わさ
Ns
O型
0030
オゾン層
レディ
上清
防熱
エレメンタ
ウオータ
半月
硬調
##タッチ
ずっと
バラクタ
サブピクチャ
物語
WF
戻ろう
切り目
主眼
特権
熱性
##たばこ
ナフサ
券売機
横列
##箇所
##タンパ
押し戻さ
到着時間
看護婦
極点
絞り込ま
アップグレード
ほつれ
##キュライト
##ION
ひらがな
Journal
カバン
##スケジュール
沈埋
肘掛
荷卸し
コンニャク
Vpp
静水
##の毛
##ルトリメチルアンモニウム
##ynth
支払っ
Eb
焚き
キノンジアジド
造作
##トコル
放射熱
マイクロメータ
テレメータ
##ATT
感染性
スイッチト
ワイヤーソー
SAR
説明書
つなぎ合わせ
InGaP
色ごと
髪の毛
##テンシン
落ち着
カミソリ
挾み
現物
レジャー
コンミテータ
スイッチングハブ
ガーダ
5100
フライング
ルーター
昼夜
掛け渡す
直腸
ΔΣ
旨味
氷点
##AF
フォトン
トノカバー
押し板
黒白
全圧
##ベイ
JISA
削り取ら
拍動
##プロペニル
TiCN
ヘーズ
特売
突き当たっ
ワインディング
##ネオ
シャックル
サマリウム
倍音
##守り
プレミアム
溶ける
FeCo
はずし
既定値
ビビリ
すり身
ベンチュリー
Fab
書く
移さ
アルコル
中期
##放し
不調
異なれ
##ash
とても
##ネガ
商品券
脱水剤
問い合せ
仕向
口唇
硝材
ストレー
メチルエーテル
噛み込ん
代替品
##ree
##アパタイト
島台
横桁
##ツリー
中国語
命中
コピー先
2100
気導
絆創
604
インタプリタ
イソプレンゴム
被さる
##コナ
取り出せ
押し潰す
##むね
##ンジアミド
##シャッタ
Us
スクリード
サンギア
kΩ
アミノプロピルトリメトキシシラン
わり
被除
炭酸飲料
絆創膏
##さり
詰め物
ショットキーバ
part
均平
##ピリジニウム
ぜん
らる
gm
##son
##ダム
xx
巻尺
複合語
##プリフォーム
マスキングテープ
衣料品
押し広げる
想起
おおむね
吹き飛ばし
コド
ドック
ガードル
プレゼント
ストッキング
ベヘン
低段
刷本
絵付け
##az
聞い
Pch
パブリ
伸ばさ
モノポール
バックボーン
##グルーブ
スーツ
泥状
##ジチオ
415
ジクミル
ニス
梗塞
要所
##EMT
工部
乳液
##イミング
ベビー
速め
Rr
メネジ
引渡
積み重
ディック
##ther
求核
上質
低けれ
建込み
##エピ
##ject
アクセスログ
折り込ん
##イソシアヌレート
まちまち
従業者
桟橋
混用
##エライト
マッド
答える
見落とし
高段
客体
押入
グラインダー
##レオニン
腐植
迎え
422
F値
ハイス
パッケ
##ロラ
##FA
綴じ込み
栄養剤
フア
目立っ
くさび形
多けれ
重光
##ランク
再生紙
送出す
##さえ
##スライド
センチメートル
売れ
##調査
414
ワイプ
競技場
刷子
導子
リングオシレータ
個人別
ウォーターマーク
伸側
催促
##通り
インビボ
##ランガム
側波
因る
索出
##パウ
##データバス
Np
ジクロライド
合着
寝かせ
##ポリイソシアネート
##シクロペンタジエニル
ドレッサー
覆部
身元
##バンク
トルイ
抱く
運針
##ニチン
みぞ
エネル
伏せ
悪用
組ん
フオ
払わ
サブモジュール
さび
農作業
鱗茎
コーテイング
ドアヒンジ
ジェル
マネー
作曲
運転免
上弦
同値
##ボレート
積み上げる
すず
精練
##もっ
##まず
宛て先
電子管
バーミ
フレキシブルコンテナ
na
型付け
短小
アルケニレン
SPM
分留
##っぱ
フライヤ
##ブタジエ
メリ
氷水
貯める
261
セールス
列線
##ファイド
##スルー
ポインター
ダイヤフラムポンプ
##アザ
諸点
##Gly
##べり
ゲームソフト
##ロータ
##り返す
KV
##ep
RFe
マナーモード
浮く
目付け
駅名
##ぐるみ
デシテックス
シグネチャ
##ブタン
生花
抽象化
KI
met
1984
テンポラリ
ヘリコバクター
疼痛
レイテンシ
下敷き
ジグリセリン
抄き
考えれ
1番
コーダ
噛み込ま
RSSI
侵害
##off
##パフォーマンス
FPD
CVT
かじり
囲っ
壁際
セルロースアセテート
運送業
苛酷
Integr
タングステンシリサイド
レシオ
アービタ
ハイドロキシアパタイト
語学
##リトラクタ
##シーブ
##多重
mTorr
Code
底盤
サイクロトロン
キャンバー
個室
級化
金利
##サギ
cSt
テブル
偏ら
寄せる
IIa
##ysis
ショットキーバリア
Vx
文字多重
文字多重放送
Gn
内向
##デュ
バイク
ウェザストリップ
0601
大体
弾撥
破れる
##皮革
合成皮革
フラッグ
ROI
デジタイザ
球部
預託
##ージュ
日報
622
##ビットライン
レモン
計上
戸枠
##ost
マウスピース
ロフト
屋根裏
ヘキサメチレンジアミン
二人
生年月日
本格
細心
アウトリガー
##119
清涼飲料
物資
##レーザー
##理器
##調理器
電磁調理器
ピンク
生まれ
##キッド
ヒスタミン
##マクロ
押し戻す
横壁
カルボキサミド
##ACA
営業担当者
Wi
美的
poly
小節
マイクロプログラム
Fil
マンナン
エアコンディ
読め
消費税
エトキシカルボニル
##トコ
パーオキシ
トリプトファン
モンタン
アプリケーター
トレーン
##インク
ブチルエーテル
則し
ネックレス
移動性
ローカルバス
油揚げ
遠ざけ
##プテン
フィルタープレス
補数
花弁
2400
##クスル
置き場
受領者
エアフィルター
印判
目止め
##旋回
入力内容
スライドバー
オルゴール
Group
ラセン
両隣
##gen
押し開
インサイド
##onductor
ステレオカメラ
ハサミ
アドミ
有望
##診断
Bu
紋様
プレッシャープレート
##icture
ジス
梁間
減退
発生場所
引き戻す
リノレン
チョクラルスキー
媒液
縮む
##リノン
喫食
##フォーカル
単列
##そく
掛け金
コーム
LiPF
摂取量
ピラミ
曝し
針葉樹
##ポット
50万
サブプログラム
回送
子午
コウ
SDS
引っかかる
マシニングセンタ
ヒル
外部システム
kinase
ロバスト
温浴
HH
鉄蓋
編織
ブリー
玉葱
とどめ
MEA
畜肉
分離壁
エラーコード
フライヤー
##ヘキサフルオロ
メッセンジャー
機軸
産卵
炭酸水
外れ止め
##もの
DW
真値
##ピオ
##Ba
盛り上げ
水垢
ステッカー
足底
##ディスペ
見なさ
きら
マラ
リグノセルロース
275
デスティネーション
乳濁
左折
ストリッパー
イノシトール
ハーモ
ガソリンスタンド
ポリカルボジイミド
ほんの
僅少
放棄
雪止め
##ソク
##インバータ
並び替える
はつ
根管
##ビニ
受容器
##andom
##スキャナ
##ーシック
ハス
USP
##ストール
切りくず
インダクター
エイミング
たんぱ
混ぜ合わせ
ベビーカー
ブレス
フート
キーボタン
アオ
ビュ
住友
スイート
ds
アオリ
書店
putative
バレ
ユース
訂正用
フロッピ
接ぎ木
アジペート
エネルキ
MRAM
放線
溶加
植え込み
最密
液肥
たんぱく
Ax
##ジキ
エアフロー
変則
##ファシス
カーボンナノファイバー
罹患
FIB
RAKE
ホロー
##1000
インディ
読み取れ
こじ
##イタ
受けと
くの
成約
##めり
途絶え
さく
エフェ
問合わせ
未完
きめ細かい
シナ
##ウラム
保証書
支払金額
碁盤
セルス
ダマシン
リト
黒い
fW
##Sr
抽出法
取り去る
##ッス
温感
かよう
各国
シュミット
##はず
VCM
中敷き
速乾性
動端
替える
188
バグフィルター
SUB
##ヨーク
プロモーション
FAT
ふき
##700
##GH
債務者
ウレイド
通い
依頼書
##ルーツ
Mm
未払
没食
湯切り
相場
##去る
セルラーゼ
バスインタフェース
球根
経理
ガス栓
チェア
バスブリッジ
踊り場
属さ
トリエチレン
両開き
仰臥
代理人
ガラリ
アキシアル
KF
チア
低部
Pseud
没食子
引続き
178
PCMC
摩滅
遮断機
##グサ
ターボファン
サセプター
営業支援
甲状腺
##ットン
##オーディオ
創造
気持ち
潰さ
サイアロン
規格外
ジアステレオマー
MQ
小板
NiCr
予想外
スナック
インジケーター
##VE
半角
添わ
##vent
##プロバイダ
万遍
根鉢
メチルフェニル
##チャック
定性的
##ネマチック
耐寒性
全血
絞込み
総じて
##ルチオ
##rop
共鳴器
傍受
##アクスル
##キサンチン
PCMCIA
東京
足指
モノグリセリド
URI
##ープラント
荷姿
##アダ
##集め
引き回す
エチレンビス
ガット
失禁
HCFC
フォロー
生殖
督促
見返し
##マイザ
インクリメンタル
モノエタノールアミン
性相
扉板
##ッテル
##man
インボリュート
##しみ
033
sc
合せる
横目
AlMg
建築資材
培養基
取り外せる
捕らえる
予報
##ツジ
トリイソ
ET
合図
留まり
コアシート
化粧水
ヒーティング
浸さ
熱せ
##バレ
ピラジン
まん
トランスフェラーゼ
ライム
はい
ビニレン
膜法
##肥料
187
ゲルコート
CAN
前車
図案
断水
証明証
rec
加筆
当面
駐輪場
サンダル
担架
##オリゴマー
小児
セルフアライン
草木
318
展開図
コンプレッション
##脂質
##obal
ユークリッド
ホー
長光
##上昇
参考文献
みなせる
育毛剤
蒸れ
##ソグラフィ
##ザース
##BP
ユニットセル
支援者
もらい
優秀
MgF
件名
放し
##トレーション
##ange
取扱説明書
甲部
1120
有意義
合点
引火点
##Leu
265
##バイパス
急上昇
##ホスファ
MMP
しまえ
IgE
ヘッドコア
支払者
膵臓
据え置き
ラッシュ
置場
文字色
押さえ付ける
TaN
擦ら
格付
組紐
大根
ラッチング
外環
縮減
##CR
ばね下
明確化
取水口
ジシアンジアミド
三菱
剥し
ピリミ
鍋底
264
股間
速結
##フア
##世界
##angu
就業
フロントドア
##emiconductor
きつく
刺入
エアレーション
エンコーダー
クラム
##かび
##att
製造元
Dt
威嚇
寝たき
トリマ
シリコーンゲル
寝たきり
仕入れ
##エレクト
フロス
はすば
繰出さ
##ングラス
イソインド
定温
ゴムリング
妊娠
モダ
身近
2004
ピザ
ルシ
採尿
核体
##ズミ
エアスプリング
モルフォ
オッズ
経歴
PETボトル
否め
##決め
持ち歩く
ケブル
肉体的
##ference
##トー
##ーパネル
オットマン
425
ソルベント
アッセンブリー
スギ
##やり
各局
唐箕
養分
静止衛星
紙切れ
被乗数
##ring
Program
ロド
樹枝
家禽
プレフィルタ
##ウィンド
歯幅
糖度
バインディング
532
引き外し
リサイズ
バルブスプリング
ワークスペース
MoO
エントランス
成功率
外構
損壊
##iff
コーディネート
ルミネセンス
信託
ビスマレイミド
##etr
##TCA
ソロモン
##DF
メンバーシップ
##マルチフィラメント
##ネオール
流れ出し
ディスタンス
コストパフォーマンス
コーパス
ボーダー
前眼
本物
艤装
トラクター
##ction
オア
比べれ
右左
目録
読み上げる
クレア
すぐれる
意識的
##ストラップ
し終え
昭和
湧水
##書類
弱電
影像
共生
流行
ラジエータコア
不明確
fT
フルス
現実世界
EPROM
Local
気候
給付
##さん
エキサ
振込み
バーミキュライト
tp
振れる
##ネチル
アイレット
もうけ
##テレフタ
白く
Method
ゲルパーミエーションクロマトグラフィー
まし
ファール
類義語
濾床
##パーオキシド
ゴルフバッグ
PVDF
セピ
##クリメント
psi
mR
メッセージング
ONU
草刈り
こもり
ローダー
LI
ミラ
無断
取引き
おもて
操船
アルキルアクリレート
##乾燥機
食器洗い乾燥機
冷やさ
やさしい
RIP
ニー
乳首
インコ
吹き上げ
女性用
抗癌剤
dn
プルタブ
斥力
転子
##ステロン
パラペット
Hr
つて
##ug
コントロールパネル
低床
##返す
盗み
##サイル
DGPS
倣う
##itro
すすぎ水
公的
前払い
##ずく
##ンスター
カギ
偏重
甲殻
出来上がっ
断片化
スルフォ
メーリング
職業
土踏
土踏まず
アウトサイド
ヘリコイド
cBN
階下
具有
濾別
破綻
セラミクス
ひれ
洗顔
箱詰
##ong
太鼓
手間取る
670
待受け
毛羽立ち
Fn
油入
指定席
引きずり
治工
治工具
下弦
兆候
引抜く
書換える
パシ
頭上
折畳ん
ピラミッド
引率
内部的
253
キュービ
##ハイドロジェンポリシロキサン
イミン
搗精
窪ま
##oll
混ざっ
用便
324
側波帯
混濁
茶園
##co
イメージファイル
集光器
引っかかっ
側線
沈積
筋かい
転がる
##ld
わずら
埋も
登記
エアセル
フラワー
追い越し
出向い
MSB
コンジット
外底
透し
キャンディ
グリコシド
ヤスリ
リーバ
冠状
ハイポ
エンプ
リザーバー
歯型
##リーバ
閉じこ
プランジャポンプ
オオ
取捨
回析
クロックスキュー
スターター
アロマ
伝統的
前日
種籾
チップインダクタ
乗り換え
カルバメート
セピオライト
潰す
目指す
HEMT
エアベアリング
リストバンド
汲み上げる
右回り
最頻
取引金額
不整地
押込む
横引き
##秩序
光り
無秩序
違え
巻き付く
バスリセット
雛型
##itt
ブレージングシート
シトシン
引き継ぐ
゚で
催事
##エビ
ポリピロール
##アルカン
##リニウム
##ヤル
Acid
方向指示器
梁上
縮ん
##アカウント
高めよう
依頼人
##オキサジン
##TaO
dT
えら
広がら
故紙
稠密
応用プログラム
##ブタジエンスチレン
戸建
材面
魚群
##ちん
ゴムパッキン
グリチルリチン
レベラー
##eter
化工
麹菌
##ポリア
掻き取ら
フルブリッジ
無洗米
ラップフィルム
カルビ
##ポリオール
td
面像
アメリカ
Cor
ピペラジニル
エーブル
褐変
513
オリフラ
゚に
リプレ
Des
##トニン
すり抜け
合間
1060
##カリ
トリメチルアミン
ノコ
SiF
mm3
アバタ
##利き
高架橋
混じっ
隔置
原子力プラント
##ポリスチレン
スリー
##飛び
合併症
KB
プラズマディスプレー
イソブタン
ポータルサイト
チアジアゾール
橋台
##パラフィン
企図
CPP
カスコード
##indow
卵巣
有せ
##タミ
##ピラン
不明瞭
多め
流れ出
ブロアー
Lact
ナチュ
補っ
ケンス
##ファクト
傾斜計
ロータハブ
まっすぐ
##ケンス
##マーケット
水晶体
揺れ動
ミサイル
リキッド
児童
捩じ
洋服
折畳ま
DFB
紙押さえ
エンタテインメント
補水
SEC
付け加
サリサイド
滲み出し
多分
太線
辿っ
##Ala
米粉
ホウケイ
分流器
##づまり
0020
##サルホン
乗ずる
##ナリー
登録画面
##MAX
LDL
##annel
xDSL
なおす
テイ
ペント
##グアナミン
スクワ
タンブラ
傷病
揺れる
508
楽しま
薄葉紙
##カーボネイト
細胞死
エピタキシー
温和
留保
脊髄
高音
##リーブチル
トーリック
愛玩
センターコア
伐採
新製品
##下がる
施せ
機中
##パティキュレート
ビル内
代行者
まして
頭蓋
##セオ
折り込む
エラ
スィ
スリング
##anguage
おが
##元素
##フィット
クロノグラフ
バンバ
グラフィクス
ファイリングシステム
##ントゲン
セルサーチ
張り合わせる
同位元素
ロースター
支給
ゆるやか
アデノシン
うっ
051
炭層
純正
見付け
##対応
エアクッション
取囲む
960
未熟
計り
##ミナンス
生け
移流
応札
おろし
リミッター
生検
アクリレートモノマー
##omyces
明き
車検
掛け回さ
ジメチロール
前蓋
##キビ
検査員
質問者
企業内
ホスホリル
アシン
##シアノ
状袋
刊行物
カラン
##ライナー
ホスファターゼ
KD
目立て
サーフェ
262
##osome
Vmax
読者
##xt
決定的
##ホスホン
座り心地
事物
咀嚼
性感
ゴムチップ
プラスチゾル
農家
##テンショナー
精紡機
辿る
スタンディング
Disk
手書
定植
333
栄養分
代行業
ホウケイ酸
ニオイ
##かん
はずれる
カボン
肝要
積み込む
ジカルボキシ
ピリド
521
センサセル
カフェイン
シューティング
とどまる
アルミニューム
肢体
隅肉
##ons
当落
TiSi
ディーゼルパティキュレート
クール
##ジカーボネート
アパチャ
ブテニル
dc
##ストリ
##イドライド
1983
##ピラノシル
ジベンジル
蹴込み
##ストライ
専用機
市松
賞味期限
モレキュラー
初晶
剪定
取次
防かび
##ロニクス
いら
ジハロ
苗床
リーフスプリング
採択
スチルベン
Ea
練物
##Tr
##ーサイド
集金
##プレー
パーマロイ
手掛かり
膀胱
##モジュ
522
CoFe
##ACK
グラインダ
取り外せ
Poly
##formation
VRAM
たっ
##セリング
失い
入力枠
油管
##リスロ
##スチリル
Electro
防雪
##yte
YES
イヤー
打栓
##arg
コネクションレス
現実感
ベーシック
薄れ
骨伝導
増築
バスアクセス
1021
LiNi
ドローバー
上衣
CIE
溶浸
##キザ
依頼先
異状
イソロイシン
ジアザビシクロ
中間色
消化性
現示
生海苔
送配
キーロック
Wc
帯鋼
##GCT
レプリケーション
せき止め
うつ
別名
返信用
phosph
ポリヒドロキシアルカノエート
デコンプ
812
トレッドパターン
出発点
巻き癖
バッター
MMIC
Tmax
後置
入れ換える
Anal
070
和室
翼端
ソースガス
均す
キャディ
Biochem
すみやか
積付
栄養価
迷惑メール
##フォトダイオード
手足
は行
管口
##メルカ
ガスライン
ドアインナパネル
ASE
リサーチ
肪酸
ラチス
次室
潅水
重労働
##メジ
##ンチオ
Tt
リス
予見
懐中
斯様
チオジ
##apor
はずみ車
Per
Sup
ギザ
鎮圧
監視員
正答
袋詰
Unit
ISA
##ail
##組ん
サンプラ
007
Mi
Max
STC
デインターリーブ
上表
鋸盤
リストアップ
インフルエン
剥ぎ取る
しぼり
分母
MCU
ファジイ
UPS
トゥ
YMC
イルミネ
少なかっ
ポリブタジエンゴム
型崩れ
ランセット
振ら
線心
##ゼロ
Mode
TPO
CnH
バンバリー
ヒビ
なぞ
##たつ
テトラエトキシシラン
敷地内
コージェライト
ロビー
落書き
##ツリ
鳴り
黒く
413
釣り銭
樹状
海藻類
デプレッション
351
PDE
ストリーマ
web
整経
模造
##row
並み
前兆
##町村
貼りつけ
糖衣
取外さ
イマージョン
丸編
亙り
原体
##レター
##シンイミド
熱時
迷路
引き付ける
メチルイミダゾール
ぐら
子葉
##サンプル
##UL
##クショ
##ダクターゼ
種苗
Ie
捲れ
ヘッドフォン
リンキング
プレース
インフルエンザ
Lt
体位
有形
シクロプロパン
後列
生コン
止めネジ
エキスパンション
HPLC
フェードアウト
映像化
ログオン
Interface
##ハイドロパーオキサイド
スイッチノブ
レンタ
満足感
##104
残材
疎通
##ータイト
出向く
##トリフルオロエチレン
則っ
果皮
立た
谷間
##ブリン
ベンゼ
カルボキシメチルセルロース
##キンソン
ウサギ
ラゲージ
##iol
##Arg
ぐらい
オガ
##オーダ
グルコシダーゼ
出席者
たち
出退勤
描出
カバリング
リラク
腐朽
メタアクリレート
インキュベーション
ri
テコ
奪う
納まり
トリプシン
##AMP
根切り
##ew
##エチン
##人化
印章
常設
漁礁
潰れる
##クリップ
ABC
リル
根茎
必要事項
コンテンツプロバイダ
プルラン
貢献度
体毛
当金
Px
パスポート
イソアミル
掛け算
##ペルオキシド
080
ローサイド
##ディティブ
ソースフォロワ
COM
##起こさ
標章
フラボノイド
防菌
おこる
バックワード
サブチャネル
目標設定
Optical
原核
潮解
重積
口枠
施主
アプリケータ
SIMD
堅い
格差
##ーグ
外釜
認証方式
ペプチダーゼ
##les
Eng
マスフローコントローラ
パーティクルボード
ぜんまい
収まら
替刃
運指
こすれ
##デュー
代替え
AU
オプト
小点
時価
読込む
1004
ハブユニット
ハリ
##sh
##ハロヒドリン
乗換
力量
広大
着生
サプレ
408
スネ
脱輪
##OT
誘導機
スイッチトキャパシタ
拭い
##デコード
おそらく
Wr
はがれ
It
クラゲ
踏み込ん
OM
こびり
情景
##SEL
菓子類
ジプロピル
運用時
##ンドリマー
ラスト
着せ
刻し
買手
掛る
造波
採熱
##プリピット
ライダー
FeCr
釣り合う
Fb
船上
拡張子
メソポーラス
不定期
課せ
##エラスト
リモネン
キャンバ
ツイストペア
RMS
チュブ
非常事態
##タンパク
フェードイン
目覚まし
団粒
MBE
単糖類
剥き出し
実況
路肩
##スチル
健康診断
価額
端栓
製缶
色合わせ
カバレージ
堰き止め
AX
カカオ
am
cr
幼虫
IH
オクテ
トリプル
ウイスカー
優待
沈め
長め
421
シンカー
旅行者
フォルマント
ぼやけ
奏せ
往々
AMP
##NR
##ピペラ
車両重量
##amic
Vir
レザー
スクロース
##ame
##キセニル
##ワイヤー
金枠
サブスレ
プレカット
##ケツト
吸い上げる
MOX
ふくらみ
線上
##認識
IIR
TX
俯角
FeAl
フォーマー
おこなえる
DTP
保育
文化
##istry
取扱者
RuO
ランプピン
##TCT
per
わせ
保健
型番
組ま
連番
ローアドレス
アスベスト
敷く
ステーブ
利用実績
ストライカー
JT
むろん
##hr
アプリケーションソフトウエア
草花
##ゼリー
キャンバス
採暖
有れ
##セレ
キーパー
DAB
ざらつき
圏内
##ブロックコポリマー
メカノ
FEC
ビークル
等辺
贈答品
Hand
破る
コアブロック
332
断層面
アクセラ
##ネーム
##シック
##スペクトル
from
着水
##無く
TGF
心室
##タント
##ton
睫毛
有機的
ソルビン
前下がり
LLDPE
皮剥ぎ
Field
仕事率
聞こえる
着雪
船倉
貼り合せる
手直し
裏層
##ハライド
漢方
ポリエポキシ
メールサーバー
知れ
肘当て
フォグ
スピー
メチルアルコール
吹込む
##リード
tb
##ビフェニル
医療施設
当選者
アンペア
キシロ
TAT
同型
##ラクチャ
ダンサー
台本
##過ぎ
LV
畳み
胆汁
パシベーション
yi
青紫
##ぱい
通信費
コポリエステル
##ミネータ
摂動
繋ぎ合わせ
セーフティ
しょう
ラックバー
##こぼし
植込み
藺草
##ッフル
ドアクロ
Autom
##ソリッド
##umin
バスダクト
販売員
SONET
ブライト
吸出し
誤配
##ぎれ
186
##テント
エアベント
ランフラットタイヤ
稀釈
総合評価
親子関係
不働
腰椎
跳ね上がり
##申請
クロレラ
ショーツ
差込ま
ダブルデッキ
ノートブック
パストランジスタ
JA
オカラ
引上げる
まねく
レーシング
リブド
##ジルコニウム
放線菌
実公
繊細
##積回路
##集積回路
大規模集積回路
CNG
盛り上げる
リプライ
##ジオン
アラキ
乾い
奥壁
噛み込む
申請データ
晒し
相補性
コールセンター
デッドロック
パワープラント
オキサジアゾール
報知器
打ち出す
アダマンチル
入来
スクリン
線量計
鼻孔
スクロールバー
##フェクション
##廻し
##ディレクトリ
##reen
出発時刻
ポリチオフェン
促さ
オートマチック
突き当たり
タウリン
たんぱく質
##パイル
プロペン
かざ
傾か
子孫
質量数
Phase
##コンビネーション
施策
サブデータ
Cont
##リクス
##ボディ
優劣
##計画
滑り落ち
ACS
盛り上がる
テイク
##メカ
##フルオロアルキル
##ound
食み
##XO
押しの
サッカロ
Pym
胴板
##スクリュー
TI
271
614
下り坂
##ivers
アクロレイン
生え
送り手
PAS
GT
Sk
像点
平凸
抽斗
不衛生
集魚
##離れ
振る舞い
三角錐
tw
再登録
遵守
##ープリンタ
カラープリント
SBS
レクチン
差込む
巻出
自閉
取り換え
リンク元
求人情報
ペルオキソ
分水
##メッキ
利用目的
責任者
満載
穀粉
情報化
タイピング
NHR
##セパレータ
容認
##ーゲン
データストローブ
免許証
奥方
##GCA
507
STB
##ノルボル
オシレータ
TDM
デポジション
共析
反る
履行
遙か
##fl
Service
柱上
196
##インタリーブ
##irect
ホブ
優しく
救援
いっぱい
Yn
##VO
##インストール
皮剥き
磁波
繋げ
ランドプリピット
ビルディング
ペーパーホルダー
ワンウエイ
エーロ
Hm
RG
公募
##GAG
EFM
dr
スーパーマーケット
エキスパート
マイルド
振盪
桂皮
石灰化
nT
かじ
受精
按分
##きる
メモリーセル
テトラヒドロフラン
Yi
がん
ぐるみ
外寸
部首
飛ばさ
##飾り
##obacillus
サニタリー
有力
自主
##二重
##ick
1度
除水
雷雲
およぼ
SAN
ガンマ線
ギアボックス
IVa
RY
ser
戸外
##ダニ
プリンティング
Mark
漫画
bl
格納庫
ジチオカルバミン
##LE
##earch
##ズク
##OSi
WEBサーバ
ストレーナー
下半身
デイス
人工芝
おこし
##ung
絨毯
応援
遺失
##ねぎ
メチルアクリレート
デオキシリボ
製材
フレキシビリティ
インフラスト
内因
ゲートキ
呼吸器
Device
##アルケニル
##ナライズ
なりすまし
供用
真皮
##ルトラ
テクノ
IEC
いび
中抜き
ブルーム
半二重
蒲鉾
##yO
セパレーション
1101
フォールト
反り返
##LD
フルオロオレフィン
INT
弾塑性
ナイキスト
包括的
氷上
処理業
キャンド
修正液
IIIb
Global
ホトマスク
弱まる
石列
Transistor
nb
リシン
2200
ソリッドコア
ITU
溶滴
##ンサイ
ポリエチレンナフタレート
ネオジウム
執行
成体
遅滞
訪問先
ソーティング
マルチポイント
コマ送り
CBN
nc
ニクロム
糖脂質
##und
##非対称
プラセオ
左右非対称
##ime
RDS
メー
自覚
銀色
##消え
##スルホニウム
##レスタイヤ
FEP
銀行口座
##パルミ
タリ
異型
##ヨネット
吸い殻
保険金
恒常
##わさ
##シルセスキオキサン
はく離
ox
弗酸
糸継ぎ
聴く
##プラスト
##シナーゼ
エスケープ
出勤
木工
バックホー
体勢
眼圧
秩序
腕木
##オート
バルブピン
弾き
賦与
オキシラン
セファ
素早
起り
屈折角
ヒドロゲル
632
バックホウ
コイニング
Eg
ゲータイト
ソファー
##レーラ
CIS
可用
少々
解約
##ントリア
吊り込み
レギュレーター
##セラミ
ポリサイド
排水量
センターピン
クレジット会社
Hyp
底泥
肌着
フィリング
##ティス
PHY
Vw
引継ぎ
歩く
##キナーゼ
##やみ
シクロヘキサノール
AW
ウィスカ
##ホルミル
##シリン
メモリバス
ギター
板下
水浸
クロップ
TFE
アグリ
1900
エコノ
si
デュポン
発砲
DSRC
指導者
流れ出す
##unction
級数
##ティア
無意識
NU
ra
ヘツド
##ヘキシ
運転免許証
展伸
生ま
退室
##アクリ
##oss
コーディエライト
きり
志向
試験時間
支払方法
入れ替わる
万能
二者
培養土
シャーベット
dq
ブロン
井桁
ギヤード
アコースティック
アサイン
##菓子
MDF
##iform
Km
##シネ
柑橘類
定額
##メーカー
彫り
水棲
研ぎ
ワイア
見いだす
溶血
ミドルウェア
ひっか
コンサルティング
シトラコン
多人数
映出
虚部
作業エリア
アイポイント
615
アルミニュウム
病巣
Mx
好熱
記載事項
ウェスト
砲弾
組み入れる
リラクタンスモータ
レコ
負け
フレーミング
プロピレングリコールモノメチルエーテル
DMSO
枠型
##orator
呼び水
臭素酸
飛ばす
バスタブ
分与
##エマル
手触り
施こ
0110
復帰後
機能性食品
ケナフ
換わる
持ち込み
ヘルツ
投機
測っ
見方
ウィック
かみそり
内奥
海綿
飛び散る
##デンス
SHG
改札機
大地震
##気流
PLD
##保持
##ンジュ
ローダミン
GW
##ルトランス
ウォームギア
軟鋼
設計図
915
補体
通知メール
トラッピング
229
カプリル
洗い流し
Oxide
コースト
##レノール
絶対温度
放物線
ユーカ
誕生
##リプタ
リアプロ
ポアズ
アソ
叩い
##メチロール
チェックイン
ギヤハウジング
切り欠く
インターポーザー
掻込み
194
1201
ind
喫水
##ヨウ
引張ら
##ility
##action
チゼル
ポリグリコール
電動自転車
##プロテ
イグニション
ソープ
ボレート
優良
精子
##ニジン
電子通貨
フォルダー
企業情報
一環
譲受
スポンジゴム
DIS
団子
からみ
飛行船
編ん
酸化鉛
一元化
はから
エキソ
消える
po
##キサム
ノックピン
各極
##ins
##itch
Wt
バリアブル
コリネ
利き
書込ん
0015
インフラストラクチャ
Vss
押さえつけ
プランニング
